{
  "version": "1.0",
  "truncation": null,
  "padding": null,
  "added_tokens": [
    {
      "id": 0,
      "content": "[UNK]",
      "single_word": false,
      "lstrip": false,
      "rstrip": false,
      "normalized": false,
      "special": true
    },
    {
      "id": 1,
      "content": "[PAD]",
      "single_word": false,
      "lstrip": false,
      "rstrip": false,
      "normalized": false,
      "special": true
    }
  ],
  "normalizer": {
    "type": "NFKC"
  },
  "pre_tokenizer": {
    "type": "Sequence",
    "pretokenizers": [
      {
        "type": "WhitespaceSplit"
      },
      {
        "type": "Punctuation",
        "behavior": "Isolated"
      }
    ]
  },
  "post_processor": null,
  "decoder": null,
  "model": {
    "type": "BPE",
    "dropout": null,
    "unk_token": null,
    "continuing_subword_prefix": null,
    "end_of_word_suffix": null,
    "fuse_unk": false,
    "byte_fallback": false,
    "ignore_merges": false,
    "vocab": {
      "[UNK]": 0,
      "[PAD]": 1,
      "\"": 2,
      "#": 3,
      "$": 4,
      "%": 5,
      "'": 6,
      "(": 7,
      ")": 8,
      "+": 9,
      ",": 10,
      "-": 11,
      ".": 12,
      "/": 13,
      "0": 14,
      "1": 15,
      "2": 16,
      "3": 17,
      "4": 18,
      "5": 19,
      "6": 20,
      "7": 21,
      "8": 22,
      "9": 23,
      ":": 24,
      ";": 25,
      "=": 26,
      "?": 27,
      "A": 28,
      "B": 29,
      "C": 30,
      "D": 31,
      "E": 32,
      "F": 33,
      "G": 34,
      "H": 35,
      "I": 36,
      "J": 37,
      "L": 38,
      "M": 39,
      "N": 40,
      "P": 41,
      "R": 42,
      "S": 43,
      "T": 44,
      "U": 45,
      "W": 46,
      "Y": 47,
      "[": 48,
      "]": 49,
      "_": 50,
      "a": 51,
      "b": 52,
      "c": 53,
      "d": 54,
      "e": 55,
      "f": 56,
      "g": 57,
      "h": 58,
      "i": 59,
      "j": 60,
      "k": 61,
      "l": 62,
      "m": 63,
      "n": 64,
      "o": 65,
      "p": 66,
      "r": 67,
      "s": 68,
      "t": 69,
      "u": 70,
      "v": 71,
      "w": 72,
      "y": 73,
      "{": 74,
      "}": 75,
      "°": 76,
      "ā": 77,
      "ī": 78,
      "ı": 79,
      "،": 80,
      "؛": 81,
      "ء": 82,
      "آ": 83,
      "أ": 84,
      "ؤ": 85,
      "إ": 86,
      "ئ": 87,
      "ا": 88,
      "ب": 89,
      "ة": 90,
      "ت": 91,
      "ث": 92,
      "ج": 93,
      "ح": 94,
      "خ": 95,
      "د": 96,
      "ذ": 97,
      "ر": 98,
      "ز": 99,
      "س": 100,
      "ش": 101,
      "ص": 102,
      "ض": 103,
      "ط": 104,
      "ظ": 105,
      "ع": 106,
      "غ": 107,
      "ف": 108,
      "ق": 109,
      "ك": 110,
      "ل": 111,
      "م": 112,
      "ن": 113,
      "ه": 114,
      "و": 115,
      "ى": 116,
      "ي": 117,
      "ً": 118,
      "ُ": 119,
      "ِ": 120,
      "ّ": 121,
      "ٕ": 122,
      "٫": 123,
      "٬": 124,
      "ٰ": 125,
      "ٹ": 126,
      "پ": 127,
      "چ": 128,
      "ڈ": 129,
      "ڑ": 130,
      "ژ": 131,
      "ک": 132,
      "گ": 133,
      "ں": 134,
      "ھ": 135,
      "ہ": 136,
      "ۂ": 137,
      "ۃ": 138,
      "ی": 139,
      "ے": 140,
      "۔": 141,
      "‎": 142,
      "–": 143,
      "—": 144,
      "‘": 145,
      "’": 146,
      "−": 147,
      "می": 148,
      "ور": 149,
      "کے": 150,
      "کی": 151,
      "ری": 152,
      "ان": 153,
      "میں": 154,
      "ال": 155,
      "ار": 156,
      "ائ": 157,
      "یا": 158,
      "اور": 159,
      "ہے": 160,
      "اس": 161,
      "سے": 162,
      "کا": 163,
      "ای": 164,
      "لی": 165,
      "کو": 166,
      "وں": 167,
      "ام": 168,
      "تھ": 169,
      "نے": 170,
      "یں": 171,
      "وا": 172,
      "شن": 173,
      "پر": 174,
      "سی": 175,
      "ات": 176,
      "دی": 177,
      "کر": 178,
      "نی": 179,
      "ہیں": 180,
      "ٹن": 181,
      "ہر": 182,
      "دہ": 183,
      "گٹن": 184,
      "ایک": 185,
      "اب": 186,
      "مت": 187,
      "جو": 188,
      "ٹی": 189,
      "تی": 190,
      "ڈی": 191,
      "ٹر": 192,
      "لا": 193,
      "واشن": 194,
      "واشنگٹن": 195,
      "بی": 196,
      "ہو": 197,
      "شہر": 198,
      "ائی": 199,
      "رو": 200,
      "دو": 201,
      "ھی": 202,
      "من": 203,
      "جی": 204,
      "با": 205,
      "تا": 206,
      "مل": 207,
      "کہ": 208,
      "بر": 209,
      "سا": 210,
      "قی": 211,
      "ئی": 212,
      "یہ": 213,
      "ائے": 214,
      "است": 215,
      "بن": 216,
      "ول": 217,
      "در": 218,
      "پی": 219,
      "20": 220,
      "مر": 221,
      "فر": 222,
      "بھی": 223,
      "آپ": 224,
      "کیا": 225,
      "گر": 226,
      "ون": 227,
      "نڈ": 228,
      "مال": 229,
      "لیے": 230,
      "تھا": 231,
      "اف": 232,
      "سر": 233,
      "لو": 234,
      "کھ": 235,
      "وال": 236,
      "تے": 237,
      "زی": 238,
      "امری": 239,
      "جن": 240,
      "ریاست": 241,
      "ست": 242,
      "اہ": 243,
      "اد": 244,
      "رہ": 245,
      "عد": 246,
      "طور": 247,
      "مح": 248,
      "مق": 249,
      "اپ": 250,
      "بہ": 251,
      "جس": 252,
      "سب": 253,
      "تھی": 254,
      "19": 255,
      "تر": 256,
      "مش": 257,
      "ائن": 258,
      "علا": 259,
      "مار": 260,
      "بڑ": 261,
      "جات": 262,
      "فی": 263,
      "کن": 264,
      "وی": 265,
      "حدہ": 266,
      "بل": 267,
      "گیا": 268,
      "شنل": 269,
      "انی": 270,
      "سٹ": 271,
      "زیا": 272,
      "تک": 273,
      "نیشنل": 274,
      "متحدہ": 275,
      "زیادہ": 276,
      "اں": 277,
      "شی": 278,
      "ضل": 279,
      "کان": 280,
      "میٹر": 281,
      "ہائے": 282,
      "ساتھ": 283,
      "ئے": 284,
      "سن": 285,
      "نیا": 286,
      "علاق": 287,
      "ضلع": 288,
      "18": 289,
      "مو": 290,
      "یو": 291,
      "وری": 292,
      "وف": 293,
      "امریکی": 294,
      "اؤ": 295,
      "پو": 296,
      "ھر": 297,
      "آر": 298,
      "لم": 299,
      "شام": 300,
      "ریاستہائے": 301,
      "جہ": 302,
      "کل": 303,
      "مد": 304,
      "نا": 305,
      "کم": 306,
      "گی": 307,
      "جاتا": 308,
      "حکو": 309,
      "عر": 310,
      "لے": 311,
      "تھے": 312,
      "حکومت": 313,
      "جان": 314,
      "وہ": 315,
      "0ء": 316,
      "شامل": 317,
      "قری": 318,
      "پار": 319,
      "دیا": 320,
      "بعد": 321,
      "پہ": 322,
      "آف": 323,
      "ورجی": 324,
      "ملک": 325,
      "ورجینیا": 326,
      "مع": 327,
      "کس": 328,
      "انہ": 329,
      "تع": 330,
      "مس": 331,
      "میر": 332,
      "کرنے": 333,
      "ابن": 334,
      "رف": 335,
      "نظ": 336,
      "گری": 337,
      "لینڈ": 338,
      "قع": 339,
      "میری": 340,
      "سو": 341,
      "سال": 342,
      "قو": 343,
      "نام": 344,
      "چھ": 345,
      "17": 346,
      "اص": 347,
      "اک": 348,
      "ٹری": 349,
      "واقع": 350,
      "اری": 351,
      "تو": 352,
      "دار": 353,
      "بہت": 354,
      "سٹی": 355,
      "نس": 356,
      "جار": 357,
      "کار": 358,
      "سیا": 359,
      "آبا": 360,
      "بار": 361,
      "201": 362,
      "لائن": 363,
      "نم": 364,
      "00": 365,
      "عمار": 366,
      "گھر": 367,
      "از": 368,
      "او": 369,
      "ٹل": 370,
      "1ء": 371,
      "اخ": 372,
      "تح": 373,
      "دور": 374,
      "سم": 375,
      "اہم": 376,
      "عربی": 377,
      "عمارت": 378,
      "صو": 379,
      "نگ": 380,
      "میٹرو": 381,
      "اؤن": 382,
      "ئر": 383,
      "جل": 384,
      "خت": 385,
      "مول": 386,
      "نہیں": 387,
      "اسٹی": 388,
      "وفا": 389,
      "صدر": 390,
      "قت": 391,
      "كے": 392,
      "کانگری": 393,
      "وفاقی": 394,
      "اع": 395,
      "امی": 396,
      "دری": 397,
      "کٹ": 398,
      "اند": 399,
      "ائب": 400,
      "کرتے": 401,
      "والے": 402,
      "اپنے": 403,
      "فار": 404,
      "انے": 405,
      "ائم": 406,
      "تقری": 407,
      "كی": 408,
      "چی": 409,
      "ہوا": 410,
      "کام": 411,
      "ہوئی": 412,
      "جارج": 413,
      "کانگریس": 414,
      "رکھ": 415,
      "غی": 416,
      "گئی": 417,
      "اردو": 418,
      "مقام": 419,
      "یونی": 420,
      "پارک": 421,
      "ایا": 422,
      "ادی": 423,
      "ضاف": 424,
      "چل": 425,
      "گئے": 426,
      "رین": 427,
      "انا": 428,
      "کرتا": 429,
      "نیو": 430,
      "اح": 431,
      "شمال": 432,
      "ہی": 433,
      "میل": 434,
      "دف": 435,
      "آبادی": 436,
      "بال": 437,
      "خی": 438,
      "مط": 439,
      "گو": 440,
      "اپنی": 441,
      "پولی": 442,
      "عہ": 443,
      "لہ": 444,
      "کت": 445,
      "میو": 446,
      "لین": 447,
      "باً": 448,
      "مرک": 449,
      "بڑے": 450,
      "اق": 451,
      "جب": 452,
      "لن": 453,
      "نو": 454,
      "میم": 455,
      "علاقے": 456,
      "قومی": 457,
      "اسٹیشن": 458,
      "غیر": 459,
      "بیا": 460,
      "ثر": 461,
      "حص": 462,
      "سپ": 463,
      "ٹاؤن": 464,
      "الی": 465,
      "ائل": 466,
      "یاد": 467,
      "اتی": 468,
      "دین": 469,
      "200": 470,
      "2ء": 471,
      "جم": 472,
      "ذری": 473,
      "ٹو": 474,
      "کولم": 475,
      "ابق": 476,
      "بین": 477,
      "رہائ": 478,
      "مشر": 479,
      "خد": 480,
      "سط": 481,
      "قل": 482,
      "نوں": 483,
      "کلو": 484,
      "ہن": 485,
      "الحکومت": 486,
      "کولمبیا": 487,
      "کلومیٹر": 488,
      "بان": 489,
      "غر": 490,
      "قائم": 491,
      "ڈس": 492,
      "ڈھ": 493,
      "ہم": 494,
      "ہور": 495,
      "یم": 496,
      "ریا": 497,
      "ہوئے": 498,
      "پیش": 499,
      "وریل": 500,
      "دوران": 501,
      "تقریباً": 502,
      "میموریل": 503,
      "رح": 504,
      "سل": 505,
      "شرو": 506,
      "طرف": 507,
      "لف": 508,
      "نٹی": 509,
      "میک": 510,
      "انت": 511,
      "انھ": 512,
      "دیگر": 513,
      "اصل": 514,
      "صوص": 515,
      "شروع": 516,
      "بھ": 517,
      "مسا": 518,
      "نٹ": 519,
      "چار": 520,
      "الح": 521,
      "ایس": 522,
      "لیم": 523,
      "کرتی": 524,
      "تین": 525,
      "ہونے": 526,
      "دریائے": 527,
      "مرکز": 528,
      "رہائشی": 529,
      "بش": 530,
      "دگی": 531,
      "اسی": 532,
      "وامی": 533,
      "دہائی": 534,
      "زیم": 535,
      "شیخ": 536,
      "مسافر": 537,
      "14": 538,
      "سرو": 539,
      "شت": 540,
      "فو": 541,
      "قر": 542,
      "لق": 543,
      "وجہ": 544,
      "ٹس": 545,
      "پٹل": 546,
      "کھی": 547,
      "کاؤ": 548,
      "مشہور": 549,
      "بڑی": 550,
      "علاقہ": 551,
      "پہلے": 552,
      "تعمیر": 553,
      "مسلم": 554,
      "ٹریٹ": 555,
      "میوزیم": 556,
      "8ء": 557,
      "تص": 558,
      "لائب": 559,
      "ڈر": 560,
      "مین": 561,
      "کیپٹل": 562,
      "الم": 563,
      "اسکو": 564,
      "ٹرکٹ": 565,
      "مقامی": 566,
      "یونیور": 567,
      "ڈسٹرکٹ": 568,
      "کاؤنٹی": 569,
      "لائبری": 570,
      "6ء": 571,
      "آئی": 572,
      "بد": 573,
      "تنظ": 574,
      "زبان": 575,
      "مص": 576,
      "پور": 577,
      "پبل": 578,
      "چو": 579,
      "انوں": 580,
      "اروں": 581,
      "اسے": 582,
      "ہوتا": 583,
      "تاری": 584,
      "محمد": 585,
      "بڑا": 586,
      "5ء": 587,
      "اے": 588,
      "تد": 589,
      "تش": 590,
      "تم": 591,
      "جر": 592,
      "رہے": 593,
      "عے": 594,
      "قد": 595,
      "مز": 596,
      "کئی": 597,
      "اسٹریٹ": 598,
      "کاری": 599,
      "منٹ": 600,
      "مطابق": 601,
      "لائبریری": 602,
      "پبلک": 603,
      "اش": 604,
      "اڈ": 605,
      "اجل": 606,
      "بس": 607,
      "جسے": 608,
      "حاصل": 609,
      "خو": 610,
      "سفر": 611,
      "قاف": 612,
      "كا": 613,
      "ملا": 614,
      "مغر": 615,
      "وو": 616,
      "وار": 617,
      "ڈنگ": 618,
      "کور": 619,
      "گزی": 620,
      "انچ": 621,
      "سین": 622,
      "منظ": 623,
      "لوگ": 624,
      "امریکا": 625,
      "عداد": 626,
      "پوٹو": 627,
      "پولیٹن": 628,
      "ہندو": 629,
      "پوٹومیک": 630,
      "7ء": 631,
      "ثقاف": 632,
      "جا": 633,
      "حات": 634,
      "دے": 635,
      "رانی": 636,
      "عمال": 637,
      "فن": 638,
      "ملین": 639,
      "وقت": 640,
      "ہاؤ": 641,
      "ٹیو": 642,
      "دوسر": 643,
      "منت": 644,
      "جیسے": 645,
      "استعمال": 646,
      "والی": 647,
      "جنگ": 648,
      "جانے": 649,
      "میٹروپولیٹن": 650,
      "ڈھول": 651,
      "سروس": 652,
      "یونیورسٹی": 653,
      "3ء": 654,
      "آز": 655,
      "اظ": 656,
      "اضاف": 657,
      "بلی": 658,
      "رس": 659,
      "سری": 660,
      "شہ": 661,
      "صد": 662,
      "عام": 663,
      "فری": 664,
      "كت": 665,
      "مخت": 666,
      "نچ": 667,
      "گھ": 668,
      "یار": 669,
      "لیکن": 670,
      "اتا": 671,
      "نین": 672,
      "تیار": 673,
      "پید": 674,
      "فراہم": 675,
      "ستان": 676,
      "رہا": 677,
      "ترجم": 678,
      "موجو": 679,
      "جانا": 680,
      "قریب": 681,
      "نظام": 682,
      "سیاح": 683,
      "بشمول": 684,
      "تنظیم": 685,
      "ہاؤس": 686,
      "حد": 687,
      "خر": 688,
      "خصوص": 689,
      "دھ": 690,
      "ذکر": 691,
      "قیا": 692,
      "لگ": 693,
      "لوں": 694,
      "مضاف": 695,
      "وائ": 696,
      "ٹھ": 697,
      "پڑ": 698,
      "پاس": 699,
      "ڈال": 700,
      "کری": 701,
      "کچھ": 702,
      "کیے": 703,
      "الف": 704,
      "الاق": 705,
      "الدین": 706,
      "ائش": 707,
      "یادی": 708,
      "اینڈ": 709,
      "دوسری": 710,
      "کہا": 711,
      "بنیادی": 712,
      "سرکاری": 713,
      "بلڈنگ": 714,
      "سٹری": 715,
      "وہاں": 716,
      "نمائن": 717,
      "عمارتوں": 718,
      "مولانا": 719,
      "ذریعے": 720,
      "الاقوامی": 721,
      "اہر": 722,
      "اثر": 723,
      "بے": 724,
      "تمل": 725,
      "تعداد": 726,
      "حمل": 727,
      "طان": 728,
      "كو": 729,
      "مات": 730,
      "کسی": 731,
      "میان": 732,
      "ریست": 733,
      "واب": 734,
      "کرنا": 735,
      "ٹیم": 736,
      "ٹران": 737,
      "شہروں": 738,
      "تاہم": 739,
      "درمیان": 740,
      "گرس": 741,
      "والا": 742,
      "تھیٹر": 743,
      "ترقی": 744,
      "مشتمل": 745,
      "کانگرس": 746,
      "علاقوں": 747,
      "مقامات": 748,
      "مشرقی": 749,
      "تاریخی": 750,
      "تمام": 751,
      "دوسرے": 752,
      "ریستور": 753,
      "9ء": 754,
      "اتھ": 755,
      "اون": 756,
      "بو": 757,
      "بات": 758,
      "جائے": 759,
      "رز": 760,
      "لائی": 761,
      "لکھ": 762,
      "پھر": 763,
      "کمی": 764,
      "گڑ": 765,
      "یات": 766,
      "یاں": 767,
      "ابو": 768,
      "ڈیز": 769,
      "روز": 770,
      "دونوں": 771,
      "زیر": 772,
      "جنو": 773,
      "اپنا": 774,
      "197": 775,
      "199": 776,
      "کمپ": 777,
      "پہنچ": 778,
      "سیاسی": 779,
      "2010ء": 780,
      "تحقی": 781,
      "دفتر": 782,
      "کتاب": 783,
      "لنگٹن": 784,
      "خدمات": 785,
      "12": 786,
      "ترین": 787,
      "جام": 788,
      "جائب": 789,
      "دنیا": 790,
      "زٹ": 791,
      "سسٹ": 792,
      "شدہ": 793,
      "عجائب": 794,
      "فل": 795,
      "مبر": 796,
      "ند": 797,
      "نک": 798,
      "نہ": 799,
      "گا": 800,
      "ایم": 801,
      "این": 802,
      "ایو": 803,
      "دید": 804,
      "ہوتی": 805,
      "درجہ": 806,
      "افری": 807,
      "انھیں": 808,
      "قرار": 809,
      "سینٹر": 810,
      "مختلف": 811,
      "اول": 812,
      "بول": 813,
      "تہ": 814,
      "تار": 815,
      "جھ": 816,
      "خط": 817,
      "دن": 818,
      "عی": 819,
      "كہ": 820,
      "لام": 821,
      "مک": 822,
      "نف": 823,
      "وے": 824,
      "وسی": 825,
      "ڑی": 826,
      "ریل": 827,
      "انس": 828,
      "انٹر": 829,
      "ارے": 830,
      "ائع": 831,
      "لیگ": 832,
      "دیکھ": 833,
      "ابل": 834,
      "ابتد": 835,
      "متعد": 836,
      "جولائی": 837,
      "لاگو": 838,
      "روف": 839,
      "202": 840,
      "196": 841,
      "جاتی": 842,
      "فیصد": 843,
      "موسی": 844,
      "آرلنگٹن": 845,
      "جہاں": 846,
      "سالانہ": 847,
      "178": 848,
      "000": 849,
      "یونین": 850,
      "سپری": 851,
      "الیگزی": 852,
      "رہائشیوں": 853,
      "ملاز": 854,
      "ٹیوشن": 855,
      "قیام": 856,
      "ٹرانزٹ": 857,
      "ڈیزائن": 858,
      "متعدد": 859,
      "لاگوس": 860,
      "الیگزینڈ": 861,
      "16": 862,
      "ia": 863,
      "بع": 864,
      "حی": 865,
      "حسن": 866,
      "راست": 867,
      "سفار": 868,
      "شا": 869,
      "شائع": 870,
      "صرف": 871,
      "طرح": 872,
      "علی": 873,
      "عبد": 874,
      "كر": 875,
      "كیا": 876,
      "لٹ": 877,
      "نقل": 878,
      "ڈن": 879,
      "گہ": 880,
      "گار": 881,
      "گرو": 882,
      "ہل": 883,
      "انسٹی": 884,
      "ائر": 885,
      "ایڈ": 886,
      "تھسو": 887,
      "ہوائی": 888,
      "برطان": 889,
      "مارچ": 890,
      "تعلیم": 891,
      "177": 892,
      "توحات": 893,
      "اختیار": 894,
      "سمتھسو": 895,
      "حصہ": 896,
      "مشرق": 897,
      "اجلاس": 898,
      "ثقافتی": 899,
      "پیدا": 900,
      "ترجمہ": 901,
      "مضافاتی": 902,
      "وائٹ": 903,
      "ڈالر": 904,
      "کمپنی": 905,
      "10": 906,
      "آمد": 907,
      "امیر": 908,
      "بور": 909,
      "جاری": 910,
      "جدید": 911,
      "جگہ": 912,
      "حال": 913,
      "خص": 914,
      "خلا": 915,
      "خاند": 916,
      "زن": 917,
      "سک": 918,
      "صہ": 919,
      "صدی": 920,
      "طہ": 921,
      "عمر": 922,
      "لان": 923,
      "مض": 924,
      "مکہ": 925,
      "پنس": 926,
      "کش": 927,
      "کال": 928,
      "گن": 929,
      "ہار": 930,
      "کیہ": 931,
      "انیا": 932,
      "نیٹ": 933,
      "ٹنگ": 934,
      "ائیو": 935,
      "روح": 936,
      "بنایا": 937,
      "مالک": 938,
      "لوانیا": 939,
      "امریکن": 940,
      "آباد": 941,
      "بارہ": 942,
      "تحری": 943,
      "انداز": 944,
      "رکھا": 945,
      "شمالی": 946,
      "کتب": 947,
      "لنکن": 948,
      "ذریعہ": 949,
      "انھوں": 950,
      "كتاب": 951,
      "نمائندگی": 952,
      "مکمل": 953,
      "موسیقی": 954,
      "سمتھسونین": 955,
      "پنسلوانیا": 956,
      "ik": 957,
      "آخر": 958,
      "اج": 959,
      "توں": 960,
      "جے": 961,
      "جمو": 962,
      "دوں": 963,
      "دست": 964,
      "داد": 965,
      "شادی": 966,
      "شرح": 967,
      "شخص": 968,
      "طن": 969,
      "عظ": 970,
      "فٹ": 971,
      "فتوحات": 972,
      "قان": 973,
      "قات": 974,
      "قابل": 975,
      "مخ": 976,
      "مگر": 977,
      "مجمو": 978,
      "نش": 979,
      "نتی": 980,
      "وگر": 981,
      "گل": 982,
      "کین": 983,
      "ریلو": 984,
      "اللہ": 985,
      "ایکٹ": 986,
      "ٹیکس": 987,
      "تیز": 988,
      "لامی": 989,
      "جیفر": 990,
      "یہاں": 991,
      "ونکہ": 992,
      "محسن": 993,
      "بڑھ": 994,
      "پوسٹ": 995,
      "آرٹس": 996,
      "رفتار": 997,
      "نظر": 998,
      "ختم": 999,
      "پولیس": 1000,
      "انتظ": 1001,
      "اسکول": 1002,
      "مغربی": 1003,
      "لوگوں": 1004,
      "اضافہ": 1005,
      "سٹریٹ": 1006,
      "ابتدائی": 1007,
      "الیگزینڈریا": 1008,
      "خاندان": 1009,
      "جیفرسن": 1010,
      "13": 1011,
      "30": 1012,
      "ed": 1013,
      "on": 1014,
      "اگ": 1015,
      "بائی": 1016,
      "تجار": 1017,
      "جد": 1018,
      "جز": 1019,
      "حر": 1020,
      "حاظ": 1021,
      "خب": 1022,
      "خان": 1023,
      "خاب": 1024,
      "خاص": 1025,
      "ذی": 1026,
      "شک": 1027,
      "صف": 1028,
      "طرز": 1029,
      "ظاہر": 1030,
      "فنڈ": 1031,
      "قہ": 1032,
      "قدی": 1033,
      "لیا": 1034,
      "لون": 1035,
      "ماری": 1036,
      "نائ": 1037,
      "نواب": 1038,
      "وپ": 1039,
      "پس": 1040,
      "پن": 1041,
      "ڈور": 1042,
      "گے": 1043,
      "میت": 1044,
      "کیپی": 1045,
      "اندر": 1046,
      "الع": 1047,
      "الملک": 1048,
      "القد": 1049,
      "لیہ": 1050,
      "تھر": 1051,
      "پرنس": 1052,
      "سید": 1053,
      "دینے": 1054,
      "متع": 1055,
      "منصو": 1056,
      "باشن": 1057,
      "ملکی": 1058,
      "بنانے": 1059,
      "سرکل": 1060,
      "لوم": 1061,
      "مقاب": 1062,
      "مقبول": 1063,
      "علاوہ": 1064,
      "کنگ": 1065,
      "گیل": 1066,
      "معی": 1067,
      "مسائل": 1068,
      "سویں": 1069,
      "نسل": 1070,
      "اخبار": 1071,
      "انتخاب": 1072,
      "مسلمانوں": 1073,
      "منتخب": 1074,
      "شہری": 1075,
      "یارک": 1076,
      "موجود": 1077,
      "خصوصی": 1078,
      "ریستوراں": 1079,
      "سسٹم": 1080,
      "قدیم": 1081,
      "کیپیٹل": 1082,
      "59": 1083,
      "60": 1084,
      "بج": 1085,
      "بھر": 1086,
      "راک": 1087,
      "زر": 1088,
      "زمین": 1089,
      "سڑ": 1090,
      "شش": 1091,
      "شماری": 1092,
      "طل": 1093,
      "عو": 1094,
      "عال": 1095,
      "فور": 1096,
      "فہر": 1097,
      "فاں": 1098,
      "قا": 1099,
      "مہ": 1100,
      "مان": 1101,
      "نر": 1102,
      "نز": 1103,
      "نع": 1104,
      "نار": 1105,
      "وسط": 1106,
      "ٹے": 1107,
      "پوری": 1108,
      "پابن": 1109,
      "چر": 1110,
      "ڈز": 1111,
      "کوری": 1112,
      "کیل": 1113,
      "کیں": 1114,
      "ارت": 1115,
      "اسٹ": 1116,
      "ایف": 1117,
      "ایل": 1118,
      "ایچ": 1119,
      "کوشش": 1120,
      "واٹر": 1121,
      "منگ": 1122,
      "جیریا": 1123,
      "باغ": 1124,
      "بنا": 1125,
      "مراد": 1126,
      "فرم": 1127,
      "گرد": 1128,
      "ونٹ": 1129,
      "جنھ": 1130,
      "محکم": 1131,
      "مارک": 1132,
      "180": 1133,
      "وفات": 1134,
      "179": 1135,
      "اکثر": 1136,
      "ٹرین": 1137,
      "سیاہ": 1138,
      "بارے": 1139,
      "قتل": 1140,
      "احمد": 1141,
      "نوع": 1142,
      "اسٹیشنوں": 1143,
      "حصے": 1144,
      "سطح": 1145,
      "تشکیل": 1146,
      "خود": 1147,
      "مغرب": 1148,
      "منتقل": 1149,
      "آزاد": 1150,
      "آزادی": 1151,
      "بلیو": 1152,
      "تنظیموں": 1153,
      "کریک": 1154,
      "ایونیو": 1155,
      "وسیع": 1156,
      "ملازمت": 1157,
      "برطانیہ": 1158,
      "iki": 1159,
      "لونفاں": 1160,
      "نائجیریا": 1161,
      "گیلری": 1162,
      "فہرست": 1163,
      "پابندی": 1164,
      "27": 1165,
      "4ء": 1166,
      "in": 1167,
      "ra": 1168,
      "آغ": 1169,
      "اقت": 1170,
      "بت": 1171,
      "بغ": 1172,
      "بنی": 1173,
      "تب": 1174,
      "حل": 1175,
      "خانہ": 1176,
      "دس": 1177,
      "دل": 1178,
      "ضر": 1179,
      "طی": 1180,
      "طوف": 1181,
      "عص": 1182,
      "في": 1183,
      "فام": 1184,
      "فصوص": 1185,
      "قسم": 1186,
      "كم": 1187,
      "ما": 1188,
      "مکیہ": 1189,
      "ممالک": 1190,
      "ندی": 1191,
      "ویں": 1192,
      "ٹا": 1193,
      "پاک": 1194,
      "پانچ": 1195,
      "کبھی": 1196,
      "کائیو": 1197,
      "ہسپ": 1198,
      "میڈ": 1199,
      "میڈی": 1200,
      "ورک": 1201,
      "کیونکہ": 1202,
      "ریو": 1203,
      "انڈی": 1204,
      "انگری": 1205,
      "ارٹر": 1206,
      "یاتی": 1207,
      "کوں": 1208,
      "کوسٹ": 1209,
      "کونسل": 1210,
      "کوارٹر": 1211,
      "واز": 1212,
      "واں": 1213,
      "ایکسپری": 1214,
      "ابر": 1215,
      "متاثر": 1216,
      "تیسر": 1217,
      "ائیٹ": 1218,
      "دود": 1219,
      "باہر": 1220,
      "برگ": 1221,
      "بندی": 1222,
      "مرد": 1223,
      "گرمی": 1224,
      "والد": 1225,
      "والوں": 1226,
      "ستمبر": 1227,
      "اہی": 1228,
      "اداروں": 1229,
      "رہی": 1230,
      "190": 1231,
      "181": 1232,
      "188": 1233,
      "189": 1234,
      "آرکائیو": 1235,
      "کلاسی": 1236,
      "پہلی": 1237,
      "معاہ": 1238,
      "تعلق": 1239,
      "چھو": 1240,
      "اکبر": 1241,
      "توجہ": 1242,
      "اوسط": 1243,
      "عمارتیں": 1244,
      "رکھنے": 1245,
      "چلنے": 1246,
      "ہیڈ": 1247,
      "بالٹیم": 1248,
      "مطال": 1249,
      "پیشہ": 1250,
      "فوجی": 1251,
      "تصوف": 1252,
      "پورے": 1253,
      "جنوب": 1254,
      "تحقیقی": 1255,
      "افریقی": 1256,
      "زندگی": 1257,
      "عظیم": 1258,
      "مخالف": 1259,
      "شکست": 1260,
      "متعلق": 1261,
      "معیشت": 1262,
      "طلبہ": 1263,
      "طوفان": 1264,
      "پاکستان": 1265,
      "کوسٹیا": 1266,
      "ایکسپریس": 1267,
      "بالٹیمور": 1268,
      "24": 1269,
      "om": 1270,
      "ped": 1271,
      "آس": 1272,
      "بوں": 1273,
      "بانی": 1274,
      "جائ": 1275,
      "جزی": 1276,
      "حقو": 1277,
      "خلی": 1278,
      "داری": 1279,
      "داخ": 1280,
      "را": 1281,
      "رنگ": 1282,
      "سام": 1283,
      "شر": 1284,
      "شمار": 1285,
      "صدار": 1286,
      "طری": 1287,
      "عوامی": 1288,
      "عقد": 1289,
      "عاجل": 1290,
      "غلام": 1291,
      "لز": 1292,
      "لس": 1293,
      "لحاظ": 1294,
      "نق": 1295,
      "نگر": 1296,
      "وس": 1297,
      "ولیم": 1298,
      "ٹک": 1299,
      "پھی": 1300,
      "کنی": 1301,
      "ہاور": 1302,
      "میز": 1303,
      "میئر": 1304,
      "الب": 1305,
      "ائسن": 1306,
      "ایك": 1307,
      "ایتھ": 1308,
      "کوئی": 1309,
      "پرفار": 1310,
      "اتر": 1311,
      "اتے": 1312,
      "کردہ": 1313,
      "نیوی": 1314,
      "ٹرز": 1315,
      "ہوتے": 1316,
      "رونی": 1317,
      "دوبارہ": 1318,
      "منعقد": 1319,
      "جیسا": 1320,
      "ملك": 1321,
      "برس": 1322,
      "برقرار": 1323,
      "بنیاد": 1324,
      "بناتا": 1325,
      "2019": 1326,
      "مربع": 1327,
      "فرنٹ": 1328,
      "مالیاتی": 1329,
      "ریاستوں": 1330,
      "ویسٹ": 1331,
      "186": 1332,
      "187": 1333,
      "آرٹ": 1334,
      "پہلا": 1335,
      "مسجد": 1336,
      "نمایا": 1337,
      "گھروں": 1338,
      "سمجھ": 1339,
      "جلد": 1340,
      "جارجز": 1341,
      "اناکوسٹیا": 1342,
      "دفاتر": 1343,
      "بالکل": 1344,
      "چارٹر": 1345,
      "ووٹنگ": 1346,
      "منظور": 1347,
      "فریڈر": 1348,
      "جنوبی": 1349,
      "جامعہ": 1350,
      "انٹرنیشنل": 1351,
      "بورڈ": 1352,
      "خلاف": 1353,
      "نتیجے": 1354,
      "القدس": 1355,
      "عالمی": 1356,
      "محکمہ": 1357,
      "ikiped": 1358,
      "آغاز": 1359,
      "انگریزی": 1360,
      "جزیرہ": 1361,
      "حقوق": 1362,
      "عاجلانہ": 1363,
      "2019ء": 1364,
      "نمایاں": 1365,
      "ikipedia": 1366,
      "26": 1367,
      "38": 1368,
      "400": 1369,
      "70": 1370,
      "al": 1371,
      "en": 1372,
      "آنے": 1373,
      "آگے": 1374,
      "ؤں": 1375,
      "ئیں": 1376,
      "افر": 1377,
      "اٹھ": 1378,
      "بذریعہ": 1379,
      "ثی": 1380,
      "ثانی": 1381,
      "خری": 1382,
      "خوا": 1383,
      "دسم": 1384,
      "ذہ": 1385,
      "زار": 1386,
      "سہ": 1387,
      "سابق": 1388,
      "شاور": 1389,
      "صوف": 1390,
      "صنع": 1391,
      "عم": 1392,
      "عمل": 1393,
      "عالم": 1394,
      "فت": 1395,
      "فلا": 1396,
      "فاؤن": 1397,
      "قب": 1398,
      "مي": 1399,
      "مور": 1400,
      "مزی": 1401,
      "مست": 1402,
      "ولی": 1403,
      "پائی": 1404,
      "پانی": 1405,
      "پشاور": 1406,
      "ڈبلیو": 1407,
      "گاہ": 1408,
      "گاری": 1409,
      "ہف": 1410,
      "میاب": 1411,
      "ورت": 1412,
      "کینی": 1413,
      "رینا": 1414,
      "انسی": 1415,
      "الأ": 1416,
      "ارہ": 1417,
      "کاٹ": 1418,
      "ایجن": 1419,
      "تھام": 1420,
      "تھیں": 1421,
      "پروگر": 1422,
      "سیہ": 1423,
      "دہشت": 1424,
      "ابطہ": 1425,
      "متنوع": 1426,
      "جون": 1427,
      "ٹین": 1428,
      "تیب": 1429,
      "ڈیو": 1430,
      "ڈیشن": 1431,
      "بیس": 1432,
      "بیان": 1433,
      "بیسویں": 1434,
      "دوست": 1435,
      "درج": 1436,
      "پین": 1437,
      "پیئر": 1438,
      "20ء": 1439,
      "مراک": 1440,
      "فروری": 1441,
      "سرحد": 1442,
      "سرسید": 1443,
      "کھانے": 1444,
      "جنوری": 1445,
      "ادارے": 1446,
      "محلے": 1447,
      "ترتیب": 1448,
      "فیکس": 1449,
      "فیئر": 1450,
      "بلندی": 1451,
      "مدد": 1452,
      "عرب": 1453,
      "میرین": 1454,
      "اکتو": 1455,
      "کاروں": 1456,
      "2012ء": 1457,
      "2016ء": 1458,
      "تحت": 1459,
      "اعلی": 1460,
      "اعلان": 1461,
      "خیال": 1462,
      "یادگار": 1463,
      "خدمت": 1464,
      "کلومیٹر2": 1465,
      "بھاری": 1466,
      "مسافروں": 1467,
      "کھیل": 1468,
      "تصور": 1469,
      "ڈرل": 1470,
      "اسکوائر": 1471,
      "آئین": 1472,
      "مصروف": 1473,
      "ووٹ": 1474,
      "ثقافت": 1475,
      "رسائل": 1476,
      "موجودہ": 1477,
      "سیاحوں": 1478,
      "سیاحتی": 1479,
      "لکھتے": 1480,
      "1990ء": 1481,
      "اولڈ": 1482,
      "2022ء": 1483,
      "کالج": 1484,
      "قانون": 1485,
      "نشان": 1486,
      "ریلوے": 1487,
      "نارتھ": 1488,
      "ہسپان": 1489,
      "میڈیا": 1490,
      "تیسرا": 1491,
      "کلاسیکی": 1492,
      "مخالفت": 1493,
      "افراد": 1494,
      "دسمبر": 1495,
      "فاؤنڈیشن": 1496,
      "مزید": 1497,
      "پروگرام": 1498,
      "اکتوبر": 1499,
      "15": 1500,
      "100": 1501,
      "39": 1502,
      "46ء": 1503,
      "Wikipedia": 1504,
      "at": 1505,
      "bi": 1506,
      "er": 1507,
      "ic": 1508,
      "or": 1509,
      "st": 1510,
      "us": 1511,
      "آن": 1512,
      "آبش": 1513,
      "آٹھ": 1514,
      "ؤتھ": 1515,
      "ئن": 1516,
      "اً": 1517,
      "اٹ": 1518,
      "اگر": 1519,
      "بخ": 1520,
      "تز": 1521,
      "تال": 1522,
      "تخت": 1523,
      "ثیہ": 1524,
      "حا": 1525,
      "حق": 1526,
      "خف": 1527,
      "دائ": 1528,
      "دکان": 1529,
      "رات": 1530,
      "رکن": 1531,
      "رکھی": 1532,
      "زم": 1533,
      "سائ": 1534,
      "سٹن": 1535,
      "سمیت": 1536,
      "صاف": 1537,
      "صادی": 1538,
      "صاح": 1539,
      "ضہ": 1540,
      "ضابطہ": 1541,
      "طائی": 1542,
      "عث": 1543,
      "عل": 1544,
      "علوم": 1545,
      "غلامی": 1546,
      "فک": 1547,
      "فتح": 1548,
      "لڈ": 1549,
      "مسی": 1550,
      "ماہ": 1551,
      "مظاہر": 1552,
      "نئی": 1553,
      "وجو": 1554,
      "وطن": 1555,
      "ٕں": 1556,
      "ٹمنٹ": 1557,
      "پل": 1558,
      "چلا": 1559,
      "چائن": 1560,
      "کشن": 1561,
      "گور": 1562,
      "گان": 1563,
      "ہال": 1564,
      "یت": 1565,
      "یون": 1566,
      "کیٹ": 1567,
      "الإ": 1568,
      "ارا": 1569,
      "ارف": 1570,
      "ارٹی": 1571,
      "اسلام": 1572,
      "اسلامی": 1573,
      "کامیاب": 1574,
      "ایہ": 1575,
      "ایشن": 1576,
      "ایسو": 1577,
      "ایئر": 1578,
      "ایرینا": 1579,
      "کوز": 1580,
      "اتح": 1581,
      "دیتا": 1582,
      "متن": 1583,
      "جوڑ": 1584,
      "ٹیلی": 1585,
      "ڈیلف": 1586,
      "لاح": 1587,
      "بیلٹ": 1588,
      "بیلیہ": 1589,
      "ائیڈ": 1590,
      "روی": 1591,
      "مندر": 1592,
      "باضابطہ": 1593,
      "کہتے": 1594,
      "برف": 1595,
      "برائے": 1596,
      "براہ": 1597,
      "ساؤتھ": 1598,
      "بندر": 1599,
      "پیم": 1600,
      "2020ء": 1601,
      "مرسیہ": 1602,
      "مرثیہ": 1603,
      "افت": 1604,
      "ادا": 1605,
      "رہنم": 1606,
      "محی": 1607,
      "محفل": 1608,
      "محدود": 1609,
      "بہنوں": 1610,
      "مارٹن": 1611,
      "جاتے": 1612,
      "فید": 1613,
      "فین": 1614,
      "کنارے": 1615,
      "موسم": 1616,
      "پارکنگ": 1617,
      "معروف": 1618,
      "میراتھ": 1619,
      "17ء": 1620,
      "ٹریفک": 1621,
      "2011ء": 1622,
      "2013ء": 1623,
      "لائنیں": 1624,
      "نمبر": 1625,
      "اعت": 1626,
      "تقریبات": 1627,
      "چیز": 1628,
      "چینی": 1629,
      "چلاتی": 1630,
      "مرکزی": 1631,
      "2009ء": 1632,
      "ڈھانچ": 1633,
      "سلطن": 1634,
      "الحكم": 1635,
      "شتہ": 1636,
      "فوظ": 1637,
      "اسکولوں": 1638,
      "تاریخ": 1639,
      "اشبیلیہ": 1640,
      "اڈا": 1641,
      "اڈے": 1642,
      "کورٹ": 1643,
      "منظوری": 1644,
      "ہندوؤں": 1645,
      "اضافی": 1646,
      "گھنٹ": 1647,
      "اینڈریو": 1648,
      "اتھارٹی": 1649,
      "1970ء": 1650,
      "1976ء": 1651,
      "پہنچے": 1652,
      "2021ء": 1653,
      "1960ء": 1654,
      "1783ء": 1655,
      "سپریم": 1656,
      "راستے": 1657,
      "سفارت": 1658,
      "گروپ": 1659,
      "مجموعی": 1660,
      "انتظام": 1661,
      "انتظامی": 1662,
      "بائیک": 1663,
      "تجارتی": 1664,
      "باشندے": 1665,
      "مقابلے": 1666,
      "اقتصادی": 1667,
      "میڈیسن": 1668,
      "مردم": 1669,
      "1812ء": 1670,
      "خلیق": 1671,
      "صدارتی": 1672,
      "غلاموں": 1673,
      "نگرانی": 1674,
      "ہاورڈ": 1675,
      "میزبانی": 1676,
      "فریڈرک": 1677,
      "فلاڈیلف": 1678,
      "تھامس": 1679,
      "مراکز": 1680,
      "اعلیٰ": 1681,
      "آبشار": 1682,
      "دائرہ": 1683,
      "صاحب": 1684,
      "وجود": 1685,
      "چائنا": 1686,
      "ایسوسی": 1687,
      "بندرگاہ": 1688,
      "میراتھن": 1689,
      "سلطنت": 1690,
      "فلاڈیلفیا": 1691,
      "11": 1692,
      "28": 1693,
      "32": 1694,
      "50": 1695,
      "50ء": 1696,
      "97": 1697,
      "bn": 1698,
      "آدھ": 1699,
      "اط": 1700,
      "اجم": 1701,
      "بجانے": 1702,
      "تس": 1703,
      "تق": 1704,
      "تلو": 1705,
      "تفری": 1706,
      "تذکر": 1707,
      "جھی": 1708,
      "جاز": 1709,
      "حف": 1710,
      "خات": 1711,
      "خاں": 1712,
      "دد": 1713,
      "دات": 1714,
      "دگان": 1715,
      "ذخی": 1716,
      "رق": 1717,
      "رل": 1718,
      "رکنی": 1719,
      "رشتہ": 1720,
      "زک": 1721,
      "زور": 1722,
      "سس": 1723,
      "سپی": 1724,
      "سکاٹ": 1725,
      "شع": 1726,
      "شور": 1727,
      "شاہ": 1728,
      "شاخ": 1729,
      "شاع": 1730,
      "صنف": 1731,
      "ضی": 1732,
      "طو": 1733,
      "عت": 1734,
      "عن": 1735,
      "علم": 1736,
      "غال": 1737,
      "قبر": 1738,
      "كي": 1739,
      "لات": 1740,
      "مث": 1741,
      "مپ": 1742,
      "مری": 1743,
      "مقی": 1744,
      "ماں": 1745,
      "مملک": 1746,
      "مڈن": 1747,
      "نجی": 1748,
      "نکل": 1749,
      "نصف": 1750,
      "وق": 1751,
      "ونی": 1752,
      "وٕں": 1753,
      "ية": 1754,
      "پا": 1755,
      "پگ": 1756,
      "پھ": 1757,
      "پلی": 1758,
      "پنک": 1759,
      "پتھر": 1760,
      "چلے": 1761,
      "ڈپار": 1762,
      "ڈوپ": 1763,
      "ژن": 1764,
      "کلی": 1765,
      "گلی": 1766,
      "گون": 1767,
      "ہتھی": 1768,
      "ہاتھ": 1769,
      "مید": 1770,
      "ریڈ": 1771,
      "ریاس": 1772,
      "ریکار": 1773,
      "انٹ": 1774,
      "انکار": 1775,
      "انجام": 1776,
      "الا": 1777,
      "الملك": 1778,
      "اسم": 1779,
      "ایلی": 1780,
      "ایریا": 1781,
      "لیبل": 1782,
      "لیکس": 1783,
      "کوٹ": 1784,
      "امر": 1785,
      "امن": 1786,
      "تھنک": 1787,
      "واپس": 1788,
      "دیث": 1789,
      "دیے": 1790,
      "کرے": 1791,
      "ایکڑ": 1792,
      "ٹرول": 1793,
      "لاف": 1794,
      "لاکھ": 1795,
      "بینڈ": 1796,
      "بیٹے": 1797,
      "ہول": 1798,
      "ہوم": 1799,
      "مندو": 1800,
      "جیمز": 1801,
      "باؤ": 1802,
      "تاح": 1803,
      "ملتی": 1804,
      "بند": 1805,
      "2017ء": 1806,
      "مرکوز": 1807,
      "افی": 1808,
      "جنرل": 1809,
      "اہمیت": 1810,
      "محفوظ": 1811,
      "193": 1812,
      "198": 1813,
      "ترکہ": 1814,
      "مشترکہ": 1815,
      "ائنٹ": 1816,
      "علاحدہ": 1817,
      "کنسر": 1818,
      "کنٹرول": 1819,
      "ویلٹ": 1820,
      "ویژن": 1821,
      "بلکہ": 1822,
      "بلند": 1823,
      "شیکس": 1824,
      "شیئر": 1825,
      "کانسٹی": 1826,
      "سند": 1827,
      "علاقائی": 1828,
      "مونیو": 1829,
      "اؤں": 1830,
      "آرائش": 1831,
      "مدت": 1832,
      "جانب": 1833,
      "قریبی": 1834,
      "پارکس": 1835,
      "آفس": 1836,
      "سالہ": 1837,
      "قوم": 1838,
      "قوام": 1839,
      "اصلاح": 1840,
      "ٹریک": 1841,
      "2015ء": 1842,
      "اوائل": 1843,
      "اندلس": 1844,
      "رکھے": 1845,
      "رکھتا": 1846,
      "چلتی": 1847,
      "دفاع": 1848,
      "یادگاری": 1849,
      "2008ء": 1850,
      "2007ء": 1851,
      "ہندی": 1852,
      "بھائی": 1853,
      "الحدیث": 1854,
      "مسلمان": 1855,
      "مصنف": 1856,
      "تشدد": 1857,
      "ملاقات": 1858,
      "وارف": 1859,
      "منظر": 1860,
      "ہندووٕں": 1861,
      "گھریلو": 1862,
      "یارڈ": 1863,
      "سیاحت": 1864,
      "مضافات": 1865,
      "اونچ": 1866,
      "روزویلٹ": 1867,
      "تحقیق": 1868,
      "سسٹمز": 1869,
      "گاڑی": 1870,
      "انسان": 1871,
      "انسانی": 1872,
      "دیکھا": 1873,
      "دیکھے": 1874,
      "بعض": 1875,
      "گروہ": 1876,
      "1777ء": 1877,
      "اختیارات": 1878,
      "کمپنیوں": 1879,
      "آمدنی": 1880,
      "ہارڈ": 1881,
      "تحریک": 1882,
      "تجارت": 1883,
      "جزوی": 1884,
      "ذیل": 1885,
      "وپیا": 1886,
      "باشندوں": 1887,
      "مقابلہ": 1888,
      "بجٹ": 1889,
      "سڑکیں": 1890,
      "عوام": 1891,
      "کوریڈور": 1892,
      "باغات": 1893,
      "فرمائش": 1894,
      "جنھوں": 1895,
      "جنھیں": 1896,
      "1791ء": 1897,
      "ing": 1898,
      "rabi": 1899,
      "بغاو": 1900,
      "تبدی": 1901,
      "عصری": 1902,
      "گرمیوں": 1903,
      "جائیں": 1904,
      "داخلہ": 1905,
      "البتہ": 1906,
      "ایتھوپیا": 1907,
      "پرفارمنگ": 1908,
      "سمجھا": 1909,
      "صوفیا": 1910,
      "قبضہ": 1911,
      "ميں": 1912,
      "کینیڈی": 1913,
      "ایجنسی": 1914,
      "ٹینکس": 1915,
      "فیئرفیکس": 1916,
      "ہسپانوی": 1917,
      "بخش": 1918,
      "خفیہ": 1919,
      "دکانیں": 1920,
      "افتتاح": 1921,
      "تلوار": 1922,
      "ذخیرہ": 1923,
      "شاعری": 1924,
      "غالباً": 1925,
      "قبرستان": 1926,
      "مقیم": 1927,
      "مملکت": 1928,
      "ڈپارٹمنٹ": 1929,
      "ڈوپونٹ": 1930,
      "ریاستی": 1931,
      "شیکسپیئر": 1932,
      "مونیومنٹ": 1933,
      "یادگاریں": 1934,
      "34": 1935,
      "36": 1936,
      "3ھ": 1937,
      "40": 1938,
      "46": 1939,
      "47": 1940,
      "49": 1941,
      "51ء": 1942,
      "68": 1943,
      "75": 1944,
      "ar": 1945,
      "com": 1946,
      "es": 1947,
      "ion": 1948,
      "nd": 1949,
      "ol": 1950,
      "sh": 1951,
      "ve": 1952,
      "°س": 1953,
      "°ف": 1954,
      "آج": 1955,
      "آں": 1956,
      "آیا": 1957,
      "آبی": 1958,
      "آگیا": 1959,
      "آئے": 1960,
      "آخری": 1961,
      "اك": 1962,
      "اٹل": 1963,
      "اعداد": 1964,
      "بح": 1965,
      "بچ": 1966,
      "باس": 1967,
      "بلا": 1968,
      "بطور": 1969,
      "بلین": 1970,
      "باسی": 1971,
      "بجائے": 1972,
      "بحر": 1973,
      "تن": 1974,
      "تنا": 1975,
      "جڑ": 1976,
      "جلا": 1977,
      "جمن": 1978,
      "جمع": 1979,
      "جغر": 1980,
      "حم": 1981,
      "حان": 1982,
      "حقی": 1983,
      "حلق": 1984,
      "خبر": 1985,
      "خون": 1986,
      "دت": 1987,
      "دع": 1988,
      "دام": 1989,
      "دادی": 1990,
      "ذائ": 1991,
      "رر": 1992,
      "رپور": 1993,
      "زز": 1994,
      "زمی": 1995,
      "زائ": 1996,
      "سف": 1997,
      "شپ": 1998,
      "شات": 1999,
      "شتر": 2000,
      "شکل": 2001,
      "شہی": 2002,
      "صل": 2003,
      "صار": 2004,
      "صلہ": 2005,
      "عط": 2006,
      "عات": 2007,
      "فص": 2008,
      "فظ": 2009,
      "فال": 2010,
      "فاس": 2011,
      "فسا": 2012,
      "فول": 2013,
      "فاق": 2014,
      "قدر": 2015,
      "قون": 2016,
      "كن": 2017,
      "كئے": 2018,
      "كاری": 2019,
      "لسل": 2020,
      "لکھی": 2021,
      "لاتا": 2022,
      "مے": 2023,
      "ملی": 2024,
      "ممت": 2025,
      "مدر": 2026,
      "مون": 2027,
      "مدین": 2028,
      "مونٹ": 2029,
      "مبنی": 2030,
      "نئے": 2031,
      "نواز": 2032,
      "وڈ": 2033,
      "وزیر": 2034,
      "وڈور": 2035,
      "يہ": 2036,
      "يۃ": 2037,
      "ٹائیڈ": 2038,
      "پسی": 2039,
      "پچھ": 2040,
      "پالی": 2041,
      "پلان": 2042,
      "چن": 2043,
      "چے": 2044,
      "چند": 2045,
      "ڈا": 2046,
      "ڈے": 2047,
      "ڈاون": 2048,
      "ڑے": 2049,
      "گنے": 2050,
      "گئیں": 2051,
      "ہوں": 2052,
      "یع": 2053,
      "یل": 2054,
      "یور": 2055,
      "یوں": 2056,
      "میسا": 2057,
      "میجر": 2058,
      "ورانہ": 2059,
      "کیتھ": 2060,
      "کیشن": 2061,
      "ریس": 2062,
      "ریف": 2063,
      "ریں": 2064,
      "انڈ": 2065,
      "انکہ": 2066,
      "انقل": 2067,
      "الق": 2068,
      "الاس": 2069,
      "اسٹرز": 2070,
      "ایت": 2071,
      "ایسا": 2072,
      "ایسٹ": 2073,
      "ایگزی": 2074,
      "لیں": 2075,
      "کوچ": 2076,
      "کولی": 2077,
      "امداد": 2078,
      "امتز": 2079,
      "واحد": 2080,
      "واپسی": 2081,
      "پرائی": 2082,
      "پرائم": 2083,
      "سیع": 2084,
      "سیل": 2085,
      "سیم": 2086,
      "سینیٹ": 2087,
      "اتفاق": 2088,
      "دیو": 2089,
      "دینی": 2090,
      "ٹیج": 2091,
      "ٹیکسی": 2092,
      "ڈیم": 2093,
      "ٹرن": 2094,
      "لاک": 2095,
      "لاطی": 2096,
      "بیر": 2097,
      "بیو": 2098,
      "بیٹی": 2099,
      "بیسن": 2100,
      "بیرونی": 2101,
      "بیشتر": 2102,
      "رول": 2103,
      "روم": 2104,
      "رون": 2105,
      "دون": 2106,
      "دوی": 2107,
      "منز": 2108,
      "مناس": 2109,
      "مناف": 2110,
      "مندرجہ": 2111,
      "جیوگر": 2112,
      "باقی": 2113,
      "تاج": 2114,
      "براڈ": 2115,
      "برآں": 2116,
      "قیان": 2117,
      "ئین": 2118,
      "ولک": 2119,
      "مرچ": 2120,
      "فرانسی": 2121,
      "بھیڑ": 2122,
      "گرم": 2123,
      "گرانٹ": 2124,
      "ونس": 2125,
      "ونٹی": 2126,
      "افک": 2127,
      "سرخ": 2128,
      "سرگرمیوں": 2129,
      "سركاری": 2130,
      "لوتھر": 2131,
      "کھلا": 2132,
      "کھول": 2133,
      "کھانوں": 2134,
      "والہ": 2135,
      "جنگی": 2136,
      "رہتے": 2137,
      "محلوں": 2138,
      "مقبر": 2139,
      "مقصد": 2140,
      "مقرر": 2141,
      "تھیوڈور": 2142,
      "ترکی": 2143,
      "تراجم": 2144,
      "مارکیٹ": 2145,
      "فیض": 2146,
      "فیڈرل": 2147,
      "ویز": 2148,
      "ویٹ": 2149,
      "سٹس": 2150,
      "سٹیاں": 2151,
      "18ء": 2152,
      "1846ء": 2153,
      "یوم": 2154,
      "امریکیوں": 2155,
      "کمان": 2156,
      "کمشن": 2157,
      "عرصہ": 2158,
      "مسلسل": 2159,
      "واقعہ": 2160,
      "توسیع": 2161,
      "کاررو": 2162,
      "نمائش": 2163,
      "اوقیان": 2164,
      "تحفظ": 2165,
      "اسٹیٹ": 2166,
      "دریا": 2167,
      "کٹو": 2168,
      "اندرونی": 2169,
      "فارسی": 2170,
      "چین": 2171,
      "میوزک": 2172,
      "اقدام": 2173,
      "جبکہ": 2174,
      "نوان": 2175,
      "نومبر": 2176,
      "حصار": 2177,
      "حصوں": 2178,
      "رہائش": 2179,
      "پیشکش": 2180,
      "سلطان": 2181,
      "لفظ": 2182,
      "الحسن": 2183,
      "14ء": 2184,
      "سروے": 2185,
      "فوج": 2186,
      "کھیلوں": 2187,
      "تصنی": 2188,
      "المؤ": 2189,
      "یونیورسٹیاں": 2190,
      "تنظی": 2191,
      "پورا": 2192,
      "چوتھی": 2193,
      "چودھ": 2194,
      "چوسٹس": 2195,
      "جرسی": 2196,
      "جرائم": 2197,
      "بسیں": 2198,
      "انچہ": 2199,
      "حاتم": 2200,
      "ٹیوٹ": 2201,
      "اظت": 2202,
      "بلیک": 2203,
      "رسمی": 2204,
      "شہاب": 2205,
      "كتب": 2206,
      "خصوصیات": 2207,
      "لگے": 2208,
      "پڑوس": 2209,
      "نمائندگان": 2210,
      "حملہ": 2211,
      "ریستورانوں": 2212,
      "بوط": 2213,
      "کمیونٹی": 2214,
      "گڑھ": 2215,
      "ایمٹریک": 2216,
      "ایوان": 2217,
      "تہذی": 2218,
      "خطے": 2219,
      "نفس": 2220,
      "1961ء": 2221,
      "ملازمین": 2222,
      "كرنے": 2223,
      "گارڈن": 2224,
      "برطانوی": 2225,
      "حالات": 2226,
      "حالیہ": 2227,
      "حالانکہ": 2228,
      "خلاصہ": 2229,
      "سکتا": 2230,
      "روحانی": 2231,
      "تحریك": 2232,
      "اندازے": 2233,
      "دستخط": 2234,
      "شخصیات": 2235,
      "شخصیت": 2236,
      "کینال": 2237,
      "منصوبہ": 2238,
      "منصوبوں": 2239,
      "اخبارات": 2240,
      "شماریاتی": 2241,
      "وسطی": 2242,
      "1800ء": 2243,
      "ضرورت": 2244,
      "عصر": 2245,
      "ابرار": 2246,
      "ائیٹڈ": 2247,
      "معاہدہ": 2248,
      "معاہدے": 2249,
      "اوسطاً": 2250,
      "مطالعہ": 2251,
      "فوجیوں": 2252,
      "سامنے": 2253,
      "شرکت": 2254,
      "پھیلا": 2255,
      "ائسنس": 2256,
      "برسوں": 2257,
      "صنعتی": 2258,
      "ہفتہ": 2259,
      "نشانات": 2260,
      "پروگراموں": 2261,
      "ation": 2262,
      "org": 2263,
      "حاکم": 2264,
      "زمانہ": 2265,
      "گورنر": 2266,
      "یونائیٹڈ": 2267,
      "برفانی": 2268,
      "انتظامیہ": 2269,
      "تذکرہ": 2270,
      "حفاظت": 2271,
      "علما": 2272,
      "ہتھیار": 2273,
      "لافائیٹ": 2274,
      "افیائی": 2275,
      "شیئرنگ": 2276,
      "ہارڈکور": 2277,
      "باسکٹ": 2278,
      "جغرافیائی": 2279,
      "شہید": 2280,
      "فسادات": 2281,
      "فولگر": 2282,
      "ممتاز": 2283,
      "ٹائیڈل": 2284,
      "میساچوسٹس": 2285,
      "کیتھولک": 2286,
      "انقلاب": 2287,
      "امتزاج": 2288,
      "پرائیویٹ": 2289,
      "پرائمری": 2290,
      "منافع": 2291,
      "جیوگرافک": 2292,
      "فرانسیسی": 2293,
      "21": 2294,
      "22": 2295,
      "35": 2296,
      "37": 2297,
      "41ء": 2298,
      "500": 2299,
      "57ء": 2300,
      "560": 2301,
      "61": 2302,
      "80": 2303,
      "90": 2304,
      "92": 2305,
      "95": 2306,
      "Wa": 2307,
      "ag": 2308,
      "am": 2309,
      "arabi": 2310,
      "ee": 2311,
      "fr": 2312,
      "ibn": 2313,
      "of": 2314,
      "to": 2315,
      "ton": 2316,
      "ur": 2317,
      "آتی": 2318,
      "آتش": 2319,
      "اکی": 2320,
      "اکر": 2321,
      "ادر": 2322,
      "اوہ": 2323,
      "اكہ": 2324,
      "اطہ": 2325,
      "اقوام": 2326,
      "بي": 2327,
      "برو": 2328,
      "بست": 2329,
      "بجا": 2330,
      "تری": 2331,
      "تبہ": 2332,
      "تدری": 2333,
      "تجر": 2334,
      "تجدید": 2335,
      "جمال": 2336,
      "جاہ": 2337,
      "جواب": 2338,
      "جزیر": 2339,
      "جحان": 2340,
      "حت": 2341,
      "حک": 2342,
      "حلی": 2343,
      "حكو": 2344,
      "حدود": 2345,
      "حوالہ": 2346,
      "خز": 2347,
      "خل": 2348,
      "دکھ": 2349,
      "دروی": 2350,
      "ذمہ": 2351,
      "رگ": 2352,
      "روں": 2353,
      "روا": 2354,
      "رائے": 2355,
      "راہ": 2356,
      "راز": 2357,
      "رسالہ": 2358,
      "رجحان": 2359,
      "زا": 2360,
      "زری": 2361,
      "زبر": 2362,
      "زمر": 2363,
      "زون": 2364,
      "زبرگ": 2365,
      "ساس": 2366,
      "سپر": 2367,
      "سات": 2368,
      "سہر": 2369,
      "سائی": 2370,
      "سون": 2371,
      "سخت": 2372,
      "سمندر": 2373,
      "سفید": 2374,
      "سہول": 2375,
      "شان": 2376,
      "شعر": 2377,
      "شاہر": 2378,
      "شدید": 2379,
      "شاہی": 2380,
      "صر": 2381,
      "صان": 2382,
      "صاب": 2383,
      "صالح": 2384,
      "صورت": 2385,
      "ضم": 2386,
      "طفی": 2387,
      "ظم": 2388,
      "عنوان": 2389,
      "فرو": 2390,
      "فخر": 2391,
      "قن": 2392,
      "قے": 2393,
      "قال": 2394,
      "قیاد": 2395,
      "قصہ": 2396,
      "كى": 2397,
      "كار": 2398,
      "كام": 2399,
      "كلم": 2400,
      "لش": 2401,
      "لک": 2402,
      "لنے": 2403,
      "لسی": 2404,
      "مؤ": 2405,
      "مشن": 2406,
      "مبا": 2407,
      "مئی": 2408,
      "مانی": 2409,
      "مکان": 2410,
      "معر": 2411,
      "ماؤن": 2412,
      "مہم": 2413,
      "منین": 2414,
      "ماہر": 2415,
      "مجھ": 2416,
      "مفت": 2417,
      "مفید": 2418,
      "نؤ": 2419,
      "نور": 2420,
      "ناف": 2421,
      "نصاب": 2422,
      "وم": 2423,
      "وک": 2424,
      "وہیں": 2425,
      "ولا": 2426,
      "وکٹ": 2427,
      "وغی": 2428,
      "وزر": 2429,
      "ٹوں": 2430,
      "ٹھی": 2431,
      "ٹائم": 2432,
      "پکا": 2433,
      "پول": 2434,
      "پایا": 2435,
      "پسند": 2436,
      "چہ": 2437,
      "چکی": 2438,
      "چسا": 2439,
      "چونکہ": 2440,
      "ڈان": 2441,
      "ڈنس": 2442,
      "ڈولی": 2443,
      "ڑا": 2444,
      "ڑائی": 2445,
      "کپ": 2446,
      "کاس": 2447,
      "کچی": 2448,
      "کمیو": 2449,
      "کالم": 2450,
      "گت": 2451,
      "گال": 2452,
      "گنا": 2453,
      "گزر": 2454,
      "ھا": 2455,
      "ہائی": 2456,
      "ہسٹری": 2457,
      "ہزار": 2458,
      "ہاٹ": 2459,
      "میون": 2460,
      "میگزی": 2461,
      "ورو": 2462,
      "ورٹی": 2463,
      "کیتھی": 2464,
      "کیمڈن": 2465,
      "ریت": 2466,
      "ریز": 2467,
      "ریشن": 2468,
      "ریگن": 2469,
      "ریڈیو": 2470,
      "انگ": 2471,
      "انجی": 2472,
      "انفر": 2473,
      "انوار": 2474,
      "انٹک": 2475,
      "انصاف": 2476,
      "الڈ": 2477,
      "الگ": 2478,
      "العربی": 2479,
      "الانوار": 2480,
      "ارد": 2481,
      "ارس": 2482,
      "ارک": 2483,
      "ارکان": 2484,
      "ائج": 2485,
      "ائٹس": 2486,
      "ائیاں": 2487,
      "یاء": 2488,
      "اساس": 2489,
      "کاز": 2490,
      "کافی": 2491,
      "ایر": 2492,
      "ایسی": 2493,
      "ایجو": 2494,
      "ایتی": 2495,
      "ایشی": 2496,
      "لیمی": 2497,
      "لیتے": 2498,
      "لیمنٹ": 2499,
      "لیكن": 2500,
      "کوی": 2501,
      "کواڈ": 2502,
      "امدادی": 2503,
      "واری": 2504,
      "شنوں": 2505,
      "پرانا": 2506,
      "پرتشدد": 2507,
      "سیکشن": 2508,
      "دیر": 2509,
      "دیک": 2510,
      "دیکھی": 2511,
      "کرو": 2512,
      "کرسٹ": 2513,
      "کردار": 2514,
      "کرایا": 2515,
      "نیئر": 2516,
      "نیچے": 2517,
      "ایکس": 2518,
      "ابد": 2519,
      "ابھی": 2520,
      "متبا": 2521,
      "جوز": 2522,
      "جوی": 2523,
      "جوائنٹ": 2524,
      "جونیئر": 2525,
      "ٹینک": 2526,
      "تیوں": 2527,
      "ڈیمو": 2528,
      "ڈیئن": 2529,
      "ٹرمپ": 2530,
      "لاع": 2531,
      "لاہور": 2532,
      "لاگت": 2533,
      "بیٹھ": 2534,
      "بیورو": 2535,
      "شہرت": 2536,
      "ائیول": 2537,
      "روک": 2538,
      "رومی": 2539,
      "روانہ": 2540,
      "دوم": 2541,
      "بااثر": 2542,
      "باعث": 2543,
      "باوجود": 2544,
      "تاً": 2545,
      "تاویز": 2546,
      "ملح": 2547,
      "کہلاتا": 2548,
      "برج": 2549,
      "برآمد": 2550,
      "ساحل": 2551,
      "قید": 2552,
      "یہی": 2553,
      "درد": 2554,
      "درس": 2555,
      "پیپ": 2556,
      "پیک": 2557,
      "پینٹ": 2558,
      "208": 2559,
      "2018ء": 2560,
      "مرطو": 2561,
      "مرتبہ": 2562,
      "فرانس": 2563,
      "گرڈ": 2564,
      "گردی": 2565,
      "ونہ": 2566,
      "افظ": 2567,
      "سرکولی": 2568,
      "کھڑی": 2569,
      "کھولی": 2570,
      "کھڑے": 2571,
      "والدہ": 2572,
      "والدین": 2573,
      "زیز": 2574,
      "جنس": 2575,
      "اہدہ": 2576,
      "رہنے": 2577,
      "عدال": 2578,
      "محاص": 2579,
      "مقد": 2580,
      "اپریل": 2581,
      "بہار": 2582,
      "بہاؤ": 2583,
      "سبب": 2584,
      "194": 2585,
      "ترمیم": 2586,
      "مشی": 2587,
      "مشور": 2588,
      "مشاہدہ": 2589,
      "فیصلہ": 2590,
      "کنارہ": 2591,
      "ویت": 2592,
      "ویل": 2593,
      "بلقان": 2594,
      "بلحاظ": 2595,
      "بلاسٹرز": 2596,
      "انین": 2597,
      "نیشنلز": 2598,
      "کانٹی": 2599,
      "سنبھ": 2600,
      "وریڈا": 2601,
      "پوچھ": 2602,
      "آرمی": 2603,
      "آربور": 2604,
      "کلب": 2605,
      "گیر": 2606,
      "گیس": 2607,
      "حکومتی": 2608,
      "پارٹی": 2609,
      "پارلیمنٹ": 2610,
      "معت": 2611,
      "معیار": 2612,
      "معزز": 2613,
      "انہی": 2614,
      "تعلیمی": 2615,
      "میرے": 2616,
      "میریڈیئن": 2617,
      "سوس": 2618,
      "سوچ": 2619,
      "سواروں": 2620,
      "سوسائ": 2621,
      "سالوں": 2622,
      "قوانین": 2623,
      "نامہ": 2624,
      "نامعلوم": 2625,
      "چھے": 2626,
      "چھٹا": 2627,
      "دارالحکومت": 2628,
      "سیاں": 2629,
      "سیاست": 2630,
      "لائنز": 2631,
      "لائنوں": 2632,
      "ازت": 2633,
      "اوپر": 2634,
      "اوبا": 2635,
      "اوقات": 2636,
      "سمجھی": 2637,
      "صوفی": 2638,
      "جلال": 2639,
      "جلسے": 2640,
      "مولوی": 2641,
      "اعتوں": 2642,
      "اعظم": 2643,
      "امین": 2644,
      "اندلسی": 2645,
      "تقریب": 2646,
      "چیری": 2647,
      "چیدہ": 2648,
      "رکھتی": 2649,
      "رکھتے": 2650,
      "چلاتا": 2651,
      "رینٹ": 2652,
      "احاطہ": 2653,
      "ہیل": 2654,
      "دفن": 2655,
      "گوشت": 2656,
      "اقسام": 2657,
      "سپل": 2658,
      "2000ء": 2659,
      "2001ء": 2660,
      "بینک": 2661,
      "خدشات": 2662,
      "ہند": 2663,
      "ڈھاكہ": 2664,
      "سلس": 2665,
      "سلام": 2666,
      "انتقال": 2667,
      "الحق": 2668,
      "الحکم": 2669,
      "142": 2670,
      "143": 2671,
      "قربت": 2672,
      "تعمیراتی": 2673,
      "کیپٹلز": 2674,
      "مصنوع": 2675,
      "مصطفی": 2676,
      "چوک": 2677,
      "اشاعت": 2678,
      "اڈوں": 2679,
      "خوب": 2680,
      "وارڈ": 2681,
      "ہندوستان": 2682,
      "فنکار": 2683,
      "نینٹل": 2684,
      "پیدل": 2685,
      "ترجمے": 2686,
      "ترجمان": 2687,
      "لگا": 2688,
      "لگایا": 2689,
      "پڑے": 2690,
      "ڈالا": 2691,
      "ٹرانسپ": 2692,
      "ریستوران": 2693,
      "اونچی": 2694,
      "لکھا": 2695,
      "لکھنؤ": 2696,
      "کمیشن": 2697,
      "کمیٹی": 2698,
      "روزانہ": 2699,
      "اپنایا": 2700,
      "1973ء": 2701,
      "1991ء": 2702,
      "کمپلیکس": 2703,
      "تحقیقات": 2704,
      "129": 2705,
      "فلوریڈا": 2706,
      "افریقن": 2707,
      "تارکین": 2708,
      "خطی": 2709,
      "ابتدا": 2710,
      "الیگزینڈر": 2711,
      "حیدر": 2712,
      "سفارتی": 2713,
      "شاعر": 2714,
      "ایڈمز": 2715,
      "سکتی": 2716,
      "سکتے": 2717,
      "مضمون": 2718,
      "مضبوط": 2719,
      "مضامین": 2720,
      "کشف": 2721,
      "ہاربر": 2722,
      "اندازہ": 2723,
      "اجازت": 2724,
      "مجموعے": 2725,
      "نتیجہ": 2726,
      "ٹیکسوں": 2727,
      "ont": 2728,
      "اگست": 2729,
      "اگلے": 2730,
      "حرارت": 2731,
      "العلوم": 2732,
      "منصوبے": 2733,
      "سڑکوں": 2734,
      "فورٹ": 2735,
      "ماناساس": 2736,
      "نزدیک": 2737,
      "چرچ": 2738,
      "ارتکاز": 2739,
      "گردش": 2740,
      "1790ء": 2741,
      "ٹرینیں": 2742,
      "گیلریوں": 2743,
      "بغداد": 2744,
      "دستاویز": 2745,
      "ریوائیول": 2746,
      "ابراہم": 2747,
      "1900ء": 2748,
      "1815ء": 2749,
      "1899ء": 2750,
      "متعلقہ": 2751,
      "جائداد": 2752,
      "طریقہ": 2753,
      "نقطہ": 2754,
      "نقصان": 2755,
      "نیویارک": 2756,
      "ent": 2757,
      "خواتین": 2758,
      "ذہبی": 2759,
      "مورمن": 2760,
      "ہفتے": 2761,
      "کھیلتے": 2762,
      "eria": 2763,
      "اگرچہ": 2764,
      "علمی": 2765,
      "مسیحی": 2766,
      "مظاہروں": 2767,
      "چلایا": 2768,
      "ارادہ": 2769,
      "اراکین": 2770,
      "اتحاد": 2771,
      "پیمانے": 2772,
      "پیمائش": 2773,
      "ڈھانچے": 2774,
      "گھنٹہ": 2775,
      "گھنٹے": 2776,
      "اینڈریوز": 2777,
      "فریڈرکزبرگ": 2778,
      "آدھا": 2779,
      "تسلیم": 2780,
      "تقسیم": 2781,
      "تفریح": 2782,
      "مثال": 2783,
      "گلیوں": 2784,
      "میدان": 2785,
      "ریکارڈز": 2786,
      "مندوب": 2787,
      "باؤل": 2788,
      "1980ء": 2789,
      "کنسرٹ": 2790,
      "اونچائی": 2791,
      "گاڑیوں": 2792,
      "ington": 2793,
      "بغاوت": 2794,
      "تبدیل": 2795,
      "shington": 2796,
      "اٹلانٹک": 2797,
      "تنقید": 2798,
      "تناز": 2799,
      "خبروں": 2800,
      "ذائقہ": 2801,
      "صارفین": 2802,
      "عطیہ": 2803,
      "قدرتی": 2804,
      "مدرسے": 2805,
      "مدینہ": 2806,
      "پچھلے": 2807,
      "پالیسی": 2808,
      "چنانچہ": 2809,
      "یورپی": 2810,
      "ایگزیکٹو": 2811,
      "لاطینی": 2812,
      "کمانڈر": 2813,
      "کارروائیاں": 2814,
      "تصنیف": 2815,
      "المؤمنین": 2816,
      "تنظیمیں": 2817,
      "چودھویں": 2818,
      "تہذیب": 2819,
      "Washington": 2820,
      "from": 2821,
      "اوہائیو": 2822,
      "تجربہ": 2823,
      "جزیرے": 2824,
      "حكومت": 2825,
      "درویش": 2826,
      "رگبی": 2827,
      "روایات": 2828,
      "زبردست": 2829,
      "سائیکل": 2830,
      "شاندار": 2831,
      "قیادت": 2832,
      "ماؤنٹ": 2833,
      "نافذ": 2834,
      "وغیرہ": 2835,
      "وزرڈز": 2836,
      "ٹائمز": 2837,
      "چساپیک": 2838,
      "میونسپل": 2839,
      "میگزین": 2840,
      "کیتھیڈرل": 2841,
      "ایشیائی": 2842,
      "کواڈرینٹ": 2843,
      "متبادل": 2844,
      "ڈیموکری": 2845,
      "پینٹا": 2846,
      "مرطوب": 2847,
      "فرانسس": 2848,
      "سرکولیٹر": 2849,
      "پوچھا": 2850,
      "سوسائٹی": 2851,
      "مصنوعات": 2852,
      "دستاویزات": 2853,
      "1ھ": 2854,
      "116": 2855,
      "23": 2856,
      "25": 2857,
      "31": 2858,
      "45": 2859,
      "44ء": 2860,
      "55": 2861,
      "5ھ": 2862,
      "66": 2863,
      "67": 2864,
      "600": 2865,
      "79": 2866,
      "7ھ": 2867,
      "85": 2868,
      "98": 2869,
      "Arabi": 2870,
      "BY": 2871,
      "CC": 2872,
      "Cr": 2873,
      "Col": 2874,
      "DL": 2875,
      "Di": 2876,
      "Fus": 2877,
      "FDL": 2878,
      "Ge": 2879,
      "GFDL": 2880,
      "Hik": 2881,
      "In": 2882,
      "Ibn": 2883,
      "Re": 2884,
      "SA": 2885,
      "See": 2886,
      "Ur": 2887,
      "and": 2888,
      "bia": 2889,
      "ci": 2890,
      "cont": 2891,
      "du": 2892,
      "ep": 2893,
      "et": 2894,
      "he": 2895,
      "ht": 2896,
      "ig": 2897,
      "ls": 2898,
      "mat": 2899,
      "mbia": 2900,
      "ng": 2901,
      "og": 2902,
      "ps": 2903,
      "ric": 2904,
      "te": 2905,
      "the": 2906,
      "tps": 2907,
      "ud": 2908,
      "ul": 2909,
      "und": 2910,
      "umbia": 2911,
      "vi": 2912,
      "wiki": 2913,
      "wikipedia": 2914,
      "°C": 2915,
      "°F": 2916,
      "ءال": 2917,
      "آئ": 2918,
      "آل": 2919,
      "آڈی": 2920,
      "آتے": 2921,
      "آبائی": 2922,
      "ئلے": 2923,
      "اء": 2924,
      "اذ": 2925,
      "اض": 2926,
      "اُ": 2927,
      "اہیں": 2928,
      "اکن": 2929,
      "بط": 2930,
      "بائ": 2931,
      "بنے": 2932,
      "بکر": 2933,
      "بتا": 2934,
      "بقی": 2935,
      "بلو": 2936,
      "بغیر": 2937,
      "بجانا": 2938,
      "بائسن": 2939,
      "بونہ": 2940,
      "تج": 2941,
      "تغ": 2942,
      "تك": 2943,
      "تي": 2944,
      "تلا": 2945,
      "تہو": 2946,
      "تقی": 2947,
      "تئی": 2948,
      "تجز": 2949,
      "تروی": 2950,
      "تفص": 2951,
      "تونس": 2952,
      "تائج": 2953,
      "تجوی": 2954,
      "ثان": 2955,
      "ثمر": 2956,
      "ثریت": 2957,
      "جال": 2958,
      "جاب": 2959,
      "جبل": 2960,
      "جھر": 2961,
      "جمد": 2962,
      "حفی": 2963,
      "حامی": 2964,
      "حوالے": 2965,
      "حیات": 2966,
      "حروف": 2967,
      "حبت": 2968,
      "حكم": 2969,
      "حدون": 2970,
      "حافظ": 2971,
      "خس": 2972,
      "خور": 2973,
      "خام": 2974,
      "ختی": 2975,
      "خمار": 2976,
      "خانے": 2977,
      "خانوں": 2978,
      "خائر": 2979,
      "دیں": 2980,
      "دنی": 2981,
      "دعو": 2982,
      "ذا": 2983,
      "ذاتی": 2984,
      "ذخائر": 2985,
      "رخ": 2986,
      "رك": 2987,
      "رار": 2988,
      "راس": 2989,
      "رہو": 2990,
      "رجم": 2991,
      "رمض": 2992,
      "رچر": 2993,
      "ربط": 2994,
      "زام": 2995,
      "زئی": 2996,
      "زاروں": 2997,
      "زند": 2998,
      "سئ": 2999,
      "سع": 3000,
      "سمی": 3001,
      "سکے": 3002,
      "سکی": 3003,
      "سان": 3004,
      "سلی": 3005,
      "سمن": 3006,
      "سوال": 3007,
      "سلیم": 3008,
      "سکور": 3009,
      "سکوئی": 3010,
      "سواری": 3011,
      "شل": 3012,
      "شو": 3013,
      "شے": 3014,
      "شری": 3015,
      "شار": 3016,
      "شکا": 3017,
      "شای": 3018,
      "شمس": 3019,
      "شرف": 3020,
      "شکری": 3021,
      "شوق": 3022,
      "شدت": 3023,
      "صب": 3024,
      "صے": 3025,
      "صلا": 3026,
      "صاد": 3027,
      "صدور": 3028,
      "صحبت": 3029,
      "ضح": 3030,
      "ضوں": 3031,
      "ضمیر": 3032,
      "طے": 3033,
      "طنی": 3034,
      "طبی": 3035,
      "طبل": 3036,
      "طاری": 3037,
      "طاقت": 3038,
      "عز": 3039,
      "عار": 3040,
      "عقی": 3041,
      "عمو": 3042,
      "عبور": 3043,
      "عارف": 3044,
      "غز": 3045,
      "غور": 3046,
      "غام": 3047,
      "غول": 3048,
      "غالب": 3049,
      "فح": 3050,
      "فۃ": 3051,
      "فائ": 3052,
      "فنی": 3053,
      "فضل": 3054,
      "فاص": 3055,
      "فنس": 3056,
      "فرین": 3057,
      "فعال": 3058,
      "فلیکس": 3059,
      "قي": 3060,
      "قار": 3061,
      "قائل": 3062,
      "قاروں": 3063,
      "قبول": 3064,
      "كڈان": 3065,
      "لت": 3066,
      "لور": 3067,
      "لٹی": 3068,
      "لبن": 3069,
      "لابن": 3070,
      "لٹل": 3071,
      "لانے": 3072,
      "لائسنس": 3073,
      "مم": 3074,
      "موا": 3075,
      "مہر": 3076,
      "مرو": 3077,
      "ماپ": 3078,
      "مجس": 3079,
      "مبل": 3080,
      "مواقع": 3081,
      "ماح": 3082,
      "مجب": 3083,
      "مائل": 3084,
      "مکین": 3085,
      "مجوز": 3086,
      "مذہبی": 3087,
      "نج": 3088,
      "نن": 3089,
      "نژ": 3090,
      "نمی": 3091,
      "نڈی": 3092,
      "نمو": 3093,
      "نائب": 3094,
      "نثر": 3095,
      "نتائج": 3096,
      "هية": 3097,
      "وص": 3098,
      "وض": 3099,
      "وى": 3100,
      "وِ": 3101,
      "وٹ": 3102,
      "واس": 3103,
      "وجی": 3104,
      "وبا": 3105,
      "وتے": 3106,
      "وفی": 3107,
      "ومنٹ": 3108,
      "يت": 3109,
      "يد": 3110,
      "يں": 3111,
      "ٹڈ": 3112,
      "ٹور": 3113,
      "ٹائسن": 3114,
      "پتا": 3115,
      "پکار": 3116,
      "پلوں": 3117,
      "پزیر": 3118,
      "پایہ": 3119,
      "چا": 3120,
      "چک": 3121,
      "چکے": 3122,
      "چکا": 3123,
      "چاہ": 3124,
      "چاہی": 3125,
      "چسپی": 3126,
      "ڈو": 3127,
      "ڈون": 3128,
      "ڈنڈ": 3129,
      "ڈگل": 3130,
      "ڈاگ": 3131,
      "ڑھ": 3132,
      "ڑیاں": 3133,
      "ژری": 3134,
      "کٹر": 3135,
      "کزی": 3136,
      "کبھ": 3137,
      "کلیہ": 3138,
      "گنی": 3139,
      "گول": 3140,
      "گلو": 3141,
      "گاروں": 3142,
      "گزار": 3143,
      "گمری": 3144,
      "ہڈ": 3145,
      "ہسٹ": 3146,
      "ہدوی": 3147,
      "ہاکی": 3148,
      "ہائٹس": 3149,
      "ہزاروں": 3150,
      "یے": 3151,
      "یہیں": 3152,
      "یحی": 3153,
      "میہ": 3154,
      "میکے": 3155,
      "میكڈان": 3156,
      "ورل": 3157,
      "ورٹ": 3158,
      "ورمونٹ": 3159,
      "ورنن": 3160,
      "کیو": 3161,
      "کیک": 3162,
      "کیرو": 3163,
      "کیبل": 3164,
      "کیورٹی": 3165,
      "ریہ": 3166,
      "ریزی": 3167,
      "ریٹیج": 3168,
      "انع": 3169,
      "انٹو": 3170,
      "انشور": 3171,
      "انجمن": 3172,
      "انحصار": 3173,
      "انشل": 3174,
      "الك": 3175,
      "الن": 3176,
      "الال": 3177,
      "الوی": 3178,
      "المد": 3179,
      "القری": 3180,
      "الاخ": 3181,
      "الاح": 3182,
      "البان": 3183,
      "الرح": 3184,
      "الشیخ": 3185,
      "التد": 3186,
      "الاش": 3187,
      "الاول": 3188,
      "الاکبر": 3189,
      "الطائی": 3190,
      "الامر": 3191,
      "الحصار": 3192,
      "النفس": 3193,
      "الابد": 3194,
      "الجلال": 3195,
      "الاندلسی": 3196,
      "الزام": 3197,
      "اربن": 3198,
      "ائد": 3199,
      "ائز": 3200,
      "ائس": 3201,
      "یاب": 3202,
      "یاز": 3203,
      "اورہ": 3204,
      "اورنج": 3205,
      "اسپ": 3206,
      "استا": 3207,
      "اسپی": 3208,
      "اسفار": 3209,
      "اسپور": 3210,
      "اسسٹن": 3211,
      "ایش": 3212,
      "ایان": 3213,
      "ایوی": 3214,
      "اینا": 3215,
      "ایلنگٹن": 3216,
      "ایگل": 3217,
      "لیف": 3218,
      "لیکا": 3219,
      "لیڈر": 3220,
      "لیٹک": 3221,
      "لیسس": 3222,
      "کومیو": 3223,
      "امور": 3224,
      "امام": 3225,
      "امکس": 3226,
      "املات": 3227,
      "املاک": 3228,
      "تھک": 3229,
      "تھلی": 3230,
      "تھوڈ": 3231,
      "واق": 3232,
      "واک": 3233,
      "واڈور": 3234,
      "واضح": 3235,
      "شنز": 3236,
      "پرت": 3237,
      "پرانے": 3238,
      "پرکش": 3239,
      "پرواز": 3240,
      "سینی": 3241,
      "سیکھ": 3242,
      "سینٹی": 3243,
      "سینٹ": 3244,
      "سیکیورٹی": 3245,
      "اتمی": 3246,
      "دیتی": 3247,
      "دیتے": 3248,
      "کرہ": 3249,
      "کرکے": 3250,
      "کراس": 3251,
      "کرانے": 3252,
      "کرمانی": 3253,
      "نیٰ": 3254,
      "نیبر": 3255,
      "نیگی": 3256,
      "نیکیشن": 3257,
      "ٹنا": 3258,
      "ٹنٹ": 3259,
      "ہرجی": 3260,
      "دہلی": 3261,
      "ابواب": 3262,
      "متحد": 3263,
      "متصل": 3264,
      "مترجم": 3265,
      "جوش": 3266,
      "ٹیمیں": 3267,
      "ٹیکو": 3268,
      "ٹیکل": 3269,
      "ٹینس": 3270,
      "تیل": 3271,
      "تیم": 3272,
      "ڈیوں": 3273,
      "ڈیفنس": 3274,
      "ڈیڑھ": 3275,
      "ٹرا": 3276,
      "لاك": 3277,
      "لازمی": 3278,
      "بیت": 3279,
      "بیری": 3280,
      "بیوں": 3281,
      "بیسی": 3282,
      "بیانی": 3283,
      "بیداری": 3284,
      "بیریں": 3285,
      "ہود": 3286,
      "ہوجاتا": 3287,
      "ہوئیں": 3288,
      "ائیر": 3289,
      "روس": 3290,
      "روش": 3291,
      "روڈ": 3292,
      "رومن": 3293,
      "روایتی": 3294,
      "مند": 3295,
      "منور": 3296,
      "منسو": 3297,
      "مناص": 3298,
      "منگھ": 3299,
      "مناتا": 3300,
      "منجمد": 3301,
      "منتھلی": 3302,
      "جیتی": 3303,
      "جیائی": 3304,
      "جیتے": 3305,
      "جیئے": 3306,
      "باغی": 3307,
      "بازار": 3308,
      "تاکہ": 3309,
      "ملن": 3310,
      "ملہ": 3311,
      "کہنے": 3312,
      "برسٹ": 3313,
      "بردار": 3314,
      "براؤن": 3315,
      "برطرف": 3316,
      "برنز": 3317,
      "برمنگھ": 3318,
      "ساکر": 3319,
      "سازی": 3320,
      "ساتھی": 3321,
      "ساحلی": 3322,
      "بنک": 3323,
      "بنگ": 3324,
      "بنکی": 3325,
      "بنام": 3326,
      "بننے": 3327,
      "بنائی": 3328,
      "بندو": 3329,
      "بنائے": 3330,
      "بنکوی": 3331,
      "ولنے": 3332,
      "ولسن": 3333,
      "درہ": 3334,
      "دربار": 3335,
      "درجے": 3336,
      "پینے": 3337,
      "پیپر": 3338,
      "پیرس": 3339,
      "پیزا": 3340,
      "پیغام": 3341,
      "پیٹنٹ": 3342,
      "مراح": 3343,
      "مردوں": 3344,
      "مرعو": 3345,
      "مرتب": 3346,
      "فرڈ": 3347,
      "آپریشن": 3348,
      "گردوں": 3349,
      "نڈا": 3350,
      "نڈز": 3351,
      "نڈری": 3352,
      "نڈریا": 3353,
      "مالا": 3354,
      "مالی": 3355,
      "افسر": 3356,
      "سرپر": 3357,
      "سربراہ": 3358,
      "لوٹ": 3359,
      "لوٹے": 3360,
      "کھلی": 3361,
      "کھانا": 3362,
      "کھانسی": 3363,
      "ستاروں": 3364,
      "ادت": 3365,
      "ادل": 3366,
      "ادائی": 3367,
      "ادارہ": 3368,
      "عدم": 3369,
      "محد": 3370,
      "محض": 3371,
      "محمڈن": 3372,
      "محروم": 3373,
      "محسوس": 3374,
      "محاورہ": 3375,
      "مقال": 3376,
      "مقدس": 3377,
      "بہن": 3378,
      "بہتر": 3379,
      "191": 3380,
      "192": 3381,
      "1950ء": 3382,
      "1914ء": 3383,
      "1957ء": 3384,
      "ترقیا": 3385,
      "مشق": 3386,
      "مشغول": 3387,
      "بڑھی": 3388,
      "فیڈ": 3389,
      "فیلڈ": 3390,
      "کنز": 3391,
      "ویو": 3392,
      "ویٰ": 3393,
      "انیس": 3394,
      "انیف": 3395,
      "انیسویں": 3396,
      "تکمیل": 3397,
      "شیفرڈ": 3398,
      "سنگھ": 3399,
      "ضلعی": 3400,
      "183": 3401,
      "1850ء": 3402,
      "1814ء": 3403,
      "مولی": 3404,
      "موقع": 3405,
      "موصل": 3406,
      "یولیسس": 3407,
      "ورین": 3408,
      "پوائنٹ": 3409,
      "آرٹیکل": 3410,
      "لمبی": 3411,
      "لمبا": 3412,
      "جہتوں": 3413,
      "کلن": 3414,
      "کلام": 3415,
      "کلچر": 3416,
      "ناخو": 3417,
      "ناکوچ": 3418,
      "گینیٹ": 3419,
      "جانز": 3420,
      "جانور": 3421,
      "جانتے": 3422,
      "وہی": 3423,
      "وہیل": 3424,
      "پارٹن": 3425,
      "پہلو": 3426,
      "معاص": 3427,
      "معاون": 3428,
      "معلوم": 3429,
      "معاملات": 3430,
      "معمولی": 3431,
      "تعارف": 3432,
      "مسٹر": 3433,
      "مسابق": 3434,
      "مسٹیکس": 3435,
      "مسئلے": 3436,
      "گرین": 3437,
      "قوب": 3438,
      "نامور": 3439,
      "ناموں": 3440,
      "چھتوں": 3441,
      "174": 3442,
      "اصط": 3443,
      "اکثریت": 3444,
      "ٹریڈ": 3445,
      "ٹرینوں": 3446,
      "ٹریلز": 3447,
      "توثی": 3448,
      "بہترین": 3449,
      "سٹیشنوں": 3450,
      "نسلی": 3451,
      "جارجیائی": 3452,
      "کارڈ": 3453,
      "کارکن": 3454,
      "کارپوری": 3455,
      "کارنیگی": 3456,
      "آبادیا": 3457,
      "لائنا": 3458,
      "نمون": 3459,
      "نماز": 3460,
      "عمارات": 3461,
      "اوور": 3462,
      "اوپن": 3463,
      "اخرہ": 3464,
      "اخرا": 3465,
      "صوبوں": 3466,
      "ئرز": 3467,
      "جلس": 3468,
      "جلدی": 3469,
      "اسٹیج": 3470,
      "اسٹیٹس": 3471,
      "کانگریشنل": 3472,
      "اعمال": 3473,
      "دریاؤں": 3474,
      "کٹورل": 3475,
      "اندرون": 3476,
      "چیمبر": 3477,
      "چیمپ": 3478,
      "کاموں": 3479,
      "ایام": 3480,
      "ادیث": 3481,
      "ادیوں": 3482,
      "چلائی": 3483,
      "چلتا": 3484,
      "چلانے": 3485,
      "چلڈر": 3486,
      "چلاتے": 3487,
      "رینائسنس": 3488,
      "اناطو": 3489,
      "نیوز": 3490,
      "احت": 3491,
      "احسن": 3492,
      "احادیث": 3493,
      "ہیریٹیج": 3494,
      "دفعہ": 3495,
      "دفتری": 3496,
      "آبادیوں": 3497,
      "بالآخر": 3498,
      "گوئی": 3499,
      "گوتھک": 3500,
      "پولیٹیکو": 3501,
      "نوآبادیا": 3502,
      "سپاہی": 3503,
      "الیکٹورل": 3504,
      "یادگاروں": 3505,
      "2008": 3506,
      "2005ء": 3507,
      "جمبو": 3508,
      "جماعت": 3509,
      "بینز": 3510,
      "بیننگ": 3511,
      "خدائی": 3512,
      "غرب": 3513,
      "غربت": 3514,
      "ڈسکوری": 3515,
      "ڈسکارڈ": 3516,
      "سلور": 3517,
      "سلائس": 3518,
      "میکلین": 3519,
      "بھارت": 3520,
      "نٹس": 3521,
      "الحاتمی": 3522,
      "ایسکلی": 3523,
      "دہائیوں": 3524,
      "140": 3525,
      "147": 3526,
      "1446ء": 3527,
      "1451ء": 3528,
      "1444ء": 3529,
      "فوگا": 3530,
      "قرآن": 3531,
      "لقب": 3532,
      "تصانیف": 3533,
      "المکیہ": 3534,
      "المملك": 3535,
      "المہدوی": 3536,
      "کاؤنٹیوں": 3537,
      "لائبریرین": 3538,
      "آئینہ": 3539,
      "بدل": 3540,
      "بدترین": 3541,
      "زبانوں": 3542,
      "مصر": 3543,
      "مصحفی": 3544,
      "چوتھا": 3545,
      "چوڑائی": 3546,
      "تدبیریں": 3547,
      "تشریف": 3548,
      "مزار": 3549,
      "مزاح": 3550,
      "مزاکر": 3551,
      "کاریں": 3552,
      "اشرف": 3553,
      "اشاری": 3554,
      "اشاعتوں": 3555,
      "بستیوں": 3556,
      "خوش": 3557,
      "ووڈ": 3558,
      "وولی": 3559,
      "وارد": 3560,
      "منظم": 3561,
      "لوگن": 3562,
      "فنک": 3563,
      "فنانشل": 3564,
      "دوسرا": 3565,
      "اظہار": 3566,
      "اضافے": 3567,
      "رسائی": 3568,
      "شہد": 3569,
      "مختصر": 3570,
      "پیدائش": 3571,
      "موجودگی": 3572,
      "خرچ": 3573,
      "دھار": 3574,
      "لگاتا": 3575,
      "وائزری": 3576,
      "پڑا": 3577,
      "پڑی": 3578,
      "پڑھا": 3579,
      "کریں": 3580,
      "الفاظ": 3581,
      "الفتوحات": 3582,
      "الفاخرہ": 3583,
      "بلڈنگز": 3584,
      "اثرات": 3585,
      "ٹیموں": 3586,
      "بوسٹن": 3587,
      "لکھنے": 3588,
      "ابوجا": 3589,
      "روزگاری": 3590,
      "1998ء": 3591,
      "پہنچتے": 3592,
      "کتابوں": 3593,
      "کتابیں": 3594,
      "124": 3595,
      "125": 3596,
      "جامع": 3597,
      "دنیاوی": 3598,
      "گاڑیاں": 3599,
      "ایما": 3600,
      "ایمبیسی": 3601,
      "ایوبی": 3602,
      "افریقہ": 3603,
      "افریقا": 3604,
      "جھلک": 3605,
      "خطاب": 3606,
      "عیب": 3607,
      "عین": 3608,
      "انٹرویو": 3609,
      "دیکھنے": 3610,
      "2023ء": 3611,
      "1968ء": 3612,
      "1964ء": 3613,
      "موسیقاروں": 3614,
      "1781ء": 3615,
      "1789ء": 3616,
      "1784ء": 3617,
      "169": 3618,
      "راستہ": 3619,
      "راستوں": 3620,
      "شاگرد": 3621,
      "كرتے": 3622,
      "ڈنڈیوں": 3623,
      "ایڈوائزری": 3624,
      "1778ء": 3625,
      "1776ء": 3626,
      "جگہوں": 3627,
      "کشمیر": 3628,
      "تحریکوں": 3629,
      "كتابوں": 3630,
      "دستیاب": 3631,
      "دستبردار": 3632,
      "قانونی": 3633,
      "مجموعہ": 3634,
      "نشست": 3635,
      "نشانہ": 3636,
      "ٹیکسیاں": 3637,
      "بڑھا": 3638,
      "بڑھتے": 3639,
      "پوسٹل": 3640,
      "جدا": 3641,
      "جزائر": 3642,
      "ذیلی": 3643,
      "صفائی": 3644,
      "طرزوں": 3645,
      "فنڈز": 3646,
      "پنجاب": 3647,
      "العزیز": 3648,
      "العادل": 3649,
      "پرنسٹن": 3650,
      "متعارف": 3651,
      "ملکیت": 3652,
      "شہریوں": 3653,
      "593ھ": 3654,
      "595ھ": 3655,
      "بجلی": 3656,
      "بجایہ": 3657,
      "بھرا": 3658,
      "سڑک": 3659,
      "فورس": 3660,
      "فوراً": 3661,
      "قاضی": 3662,
      "مانیہ": 3663,
      "نرم": 3664,
      "نرمی": 3665,
      "کوریج": 3666,
      "اسٹور": 3667,
      "اسٹار": 3668,
      "اسٹڈیز": 3669,
      "ایلچی": 3670,
      "کوششیں": 3671,
      "منگلہ": 3672,
      "فرموں": 3673,
      "1801ء": 3674,
      "بلیوز": 3675,
      "ملازمتوں": 3676,
      "پابندیوں": 3677,
      "دلچسپی": 3678,
      "پانچواں": 3679,
      "ہسپتال": 3680,
      "میڈیکل": 3681,
      "انڈین": 3682,
      "تیسرے": 3683,
      "گرمیاں": 3684,
      "1901ء": 3685,
      "1907ء": 3686,
      "1880ء": 3687,
      "1888ء": 3688,
      "1889ء": 3689,
      "1895ء": 3690,
      "آرکائیوز": 3691,
      "کلاسیکل": 3692,
      "تعلقات": 3693,
      "چھوڑ": 3694,
      "چھوٹے": 3695,
      "چھوٹا": 3696,
      "مطالبہ": 3697,
      "مطالبے": 3698,
      "خلیج": 3699,
      "داخل": 3700,
      "صدارت": 3701,
      "طریقے": 3702,
      "ولیمز": 3703,
      "پھیلی": 3704,
      "کنیسہ": 3705,
      "ایتھلیٹک": 3706,
      "پرفارم": 3707,
      "1861ء": 3708,
      "1868ء": 3709,
      "1867ء": 3710,
      "1870ء": 3711,
      "1871ء": 3712,
      "سمجھوتے": 3713,
      "فریڈرکس": 3714,
      "389": 3715,
      "اٹھانا": 3716,
      "اٹھاتے": 3717,
      "خرید": 3718,
      "خواہ": 3719,
      "ذہانت": 3720,
      "سابقہ": 3721,
      "صنعت": 3722,
      "عملی": 3723,
      "عمدہ": 3724,
      "عملے": 3725,
      "قبائل": 3726,
      "مورگن": 3727,
      "مستند": 3728,
      "کینیلور": 3729,
      "الأسفار": 3730,
      "ایجنسیاں": 3731,
      "ڈیوک": 3732,
      "دوستانہ": 3733,
      "عربي": 3734,
      "خیالات": 3735,
      "395": 3736,
      "stric": 3737,
      "using": 3738,
      "تزئین": 3739,
      "حاضر": 3740,
      "زمانے": 3741,
      "سائٹ": 3742,
      "مسیسپی": 3743,
      "مظاہرہ": 3744,
      "الإل": 3745,
      "اسلامیات": 3746,
      "کامیابی": 3747,
      "اتحادیوں": 3748,
      "جوڑتی": 3749,
      "رہنما": 3750,
      "رہنماؤں": 3751,
      "ڈھانچہ": 3752,
      "آدھے": 3753,
      "اطر": 3754,
      "تفریحی": 3755,
      "خاتمہ": 3756,
      "رقم": 3757,
      "رقبہ": 3758,
      "كيا": 3759,
      "پگڈنڈ": 3760,
      "پگڈنڈیوں": 3761,
      "پھوٹ": 3762,
      "میدانوں": 3763,
      "ریکارڈ": 3764,
      "اسمبلی": 3765,
      "لیبلز": 3766,
      "مندوبین": 3767,
      "باؤنڈری": 3768,
      "1930ء": 3769,
      "1938ء": 3770,
      "کنسرٹس": 3771,
      "قوموں": 3772,
      "اونچا": 3773,
      "بغاوتوں": 3774,
      "تبدیلی": 3775,
      "art": 3776,
      "اكبر": 3777,
      "بحث": 3778,
      "بحریہ": 3779,
      "بچپن": 3780,
      "باسیلیکا": 3781,
      "جڑواں": 3782,
      "حمایت": 3783,
      "حقیقی": 3784,
      "حقیقت": 3785,
      "حلقے": 3786,
      "حلقوں": 3787,
      "دعا": 3788,
      "دعویٰ": 3789,
      "رپورٹ": 3790,
      "زائد": 3791,
      "زائرین": 3792,
      "فصول": 3793,
      "قونیا": 3794,
      "قونوی": 3795,
      "مونٹگمری": 3796,
      "یعنی": 3797,
      "یعقوب": 3798,
      "القاسم": 3799,
      "الاسرار": 3800,
      "سیلاب": 3801,
      "سیلواڈور": 3802,
      "دیوان": 3803,
      "ٹرنٹن": 3804,
      "بیوکس": 3805,
      "رونالڈ": 3806,
      "منزل": 3807,
      "مناسب": 3808,
      "کھولے": 3809,
      "مقبرہ": 3810,
      "مقبرے": 3811,
      "کمشنروں": 3812,
      "نمائشوں": 3813,
      "نمائشیں": 3814,
      "اوقیانوسی": 3815,
      "اوقیانوس": 3816,
      "چینل": 3817,
      "گارڈنز": 3818,
      "بيرات": 3819,
      "بروصہ": 3820,
      "تدریس": 3821,
      "جاہت": 3822,
      "حکمت": 3823,
      "خزاں": 3824,
      "دکھایا": 3825,
      "راہداری": 3826,
      "زمرہ": 3827,
      "سونپا": 3828,
      "سہولت": 3829,
      "شاہراہیں": 3830,
      "لشبونہ": 3831,
      "مباد": 3832,
      "معرفۃ": 3833,
      "مجھے": 3834,
      "ولادت": 3835,
      "وکٹورین": 3836,
      "ڈولیس": 3837,
      "کاسٹل": 3838,
      "کمیونیکیشن": 3839,
      "گزرتا": 3840,
      "ریزرو": 3841,
      "انجین": 3842,
      "ایجوکیشن": 3843,
      "بیٹھے": 3844,
      "ملحقہ": 3845,
      "پیپلز": 3846,
      "محاصرہ": 3847,
      "1942ء": 3848,
      "مشورہ": 3849,
      "ویتنام": 3850,
      "سنبھالا": 3851,
      "آربورٹیم": 3852,
      "صوفیوں": 3853,
      "ہیلتھ": 3854,
      "سلسلے": 3855,
      "1421ء": 3856,
      "خوبصورت": 3857,
      "فنکارانہ": 3858,
      "ٹرانسپورٹ": 3859,
      "خطیب": 3860,
      "مسیحیوں": 3861,
      "تنازعات": 3862,
      "کمانڈرز": 3863,
      "ڈیموکریٹک": 3864,
      "فرانسسکو": 3865,
      "1165ء": 3866,
      "Columbia": 3867,
      "Distric": 3868,
      "Fusus": 3869,
      "Hikam": 3870,
      "Reusing": 3871,
      "Urdu": 3872,
      "content": 3873,
      "https": 3874,
      "materia": 3875,
      "آئزن": 3876,
      "اضلاع": 3877,
      "بائبل": 3878,
      "بقیہ": 3879,
      "تغلق": 3880,
      "تيونس": 3881,
      "تلاش": 3882,
      "تہواروں": 3883,
      "تئیسویں": 3884,
      "تجزیہ": 3885,
      "ترویج": 3886,
      "تجویز": 3887,
      "ثمرات": 3888,
      "دنیائے": 3889,
      "دعوت": 3890,
      "رہویں": 3891,
      "رمضان": 3892,
      "رچرڈ": 3893,
      "سعادت": 3894,
      "سمندری": 3895,
      "سکوئیر": 3896,
      "شارلٹ": 3897,
      "شکاگو": 3898,
      "شاید": 3899,
      "شکریہ": 3900,
      "طبلہ": 3901,
      "عقیدے": 3902,
      "فائدہ": 3903,
      "فاصلے": 3904,
      "فرینکلن": 3905,
      "قارئین": 3906,
      "لبنان": 3907,
      "لابنگ": 3908,
      "مواد": 3909,
      "مروجہ": 3910,
      "ماپا": 3911,
      "ماحول": 3912,
      "مجبور": 3913,
      "مجوزہ": 3914,
      "نژاد": 3915,
      "واسا": 3916,
      "ٹائسنز": 3917,
      "چاہتے": 3918,
      "چاہیے": 3919,
      "ڈگلس": 3920,
      "کزینڈریا": 3921,
      "کبھار": 3922,
      "ہسٹورک": 3923,
      "یحیی": 3924,
      "میكڈانلڈ": 3925,
      "کیرولائنا": 3926,
      "ریزیڈنس": 3927,
      "انٹونی": 3928,
      "انشورنس": 3929,
      "انجمنیں": 3930,
      "المدارس": 3931,
      "القریشی": 3932,
      "الاحمر": 3933,
      "الرحمن": 3934,
      "التدبيرات": 3935,
      "الاشواق": 3936,
      "الابدال": 3937,
      "اسپورٹس": 3938,
      "ایوینیو": 3939,
      "ایگلز": 3940,
      "کومیوٹر": 3941,
      "پرکشش": 3942,
      "سیکھا": 3943,
      "ہرجیت": 3944,
      "رومنسک": 3945,
      "مناصح": 3946,
      "برسٹو": 3947,
      "برنزوک": 3948,
      "برمنگھم": 3949,
      "مراحل": 3950,
      "مرعوب": 3951,
      "ترقیاتی": 3952,
      "معاصرین": 3953,
      "مسابقتی": 3954,
      "توثیق": 3955,
      "اخراجات": 3956,
      "چیمپئن": 3957,
      "چلڈرنز": 3958,
      "اناطولیہ": 3959,
      "فوگازی": 3960,
      "المملكة": 3961,
      "مزاکرات": 3962,
      "جھلکتی": 3963,
      "کینیلورتھ": 3964,
      "پگڈنڈیاں": 3965,
      "District": 3966,
      "05": 3967,
      "06": 3968,
      "0ھ": 3969,
      "120": 3970,
      "11ء": 3971,
      "1ویں": 3972,
      "29": 3973,
      "230": 3974,
      "259": 3975,
      "227": 3976,
      "250": 3977,
      "297": 3978,
      "33": 3979,
      "41": 3980,
      "43": 3981,
      "48": 3982,
      "4ھ": 3983,
      "48ء": 3984,
      "4000": 3985,
      "410": 3986,
      "470": 3987,
      "439": 3988,
      "446": 3989,
      "52": 3990,
      "53": 3991,
      "54": 3992,
      "58ء": 3993,
      "580": 3994,
      "545": 3995,
      "51ویں": 3996,
      "62": 3997,
      "63": 3998,
      "64": 3999,
      "620": 4000,
      "618": 4001,
      "65ء": 4002,
      "612": 4003,
      "627": 4004,
      "638": 4005,
      "649": 4006,
      "635": 4007,
      "71": 4008,
      "74": 4009,
      "76": 4010,
      "77": 4011,
      "78": 4012,
      "7بی": 4013,
      "700": 4014,
      "7ویں": 4015,
      "734": 4016,
      "749": 4017,
      "81": 4018,
      "82": 4019,
      "84": 4020,
      "88": 4021,
      "8ھ": 4022,
      "8اے": 4023,
      "832": 4024,
      "846": 4025,
      "822": 4026,
      "91": 4027,
      "9ھ": 4028,
      "900": 4029,
      "92ء": 4030,
      "AP": 4031,
      "BP": 4032,
      "Bo": 4033,
      "Cکانگریس": 4034,
      "Cal": 4035,
      "Cont": 4036,
      "Dep": 4037,
      "Eng": 4038,
      "Fal": 4039,
      "Gu": 4040,
      "Hm": 4041,
      "Hol": 4042,
      "II": 4043,
      "Jag": 4044,
      "La": 4045,
      "Lic": 4046,
      "Lag": 4047,
      "Mi": 4048,
      "Mu": 4049,
      "Mur": 4050,
      "Nam": 4051,
      "Nig": 4052,
      "Pr": 4053,
      "Rand": 4054,
      "Rud": 4055,
      "So": 4056,
      "Sy": 4057,
      "Sur": 4058,
      "Tra": 4059,
      "Wh": 4060,
      "ay": 4061,
      "ain": 4062,
      "abi": 4063,
      "ave": 4064,
      "be": 4065,
      "bo": 4066,
      "bst": 4067,
      "ce": 4068,
      "ch": 4069,
      "cto": 4070,
      "de": 4071,
      "der": 4072,
      "day": 4073,
      "em": 4074,
      "ey": 4075,
      "ear": 4076,
      "fo": 4077,
      "for": 4078,
      "ger": 4079,
      "hic": 4080,
      "im": 4081,
      "is": 4082,
      "iv": 4083,
      "ies": 4084,
      "ish": 4085,
      "ive": 4086,
      "ide": 4087,
      "jabi": 4088,
      "ks": 4089,
      "led": 4090,
      "les": 4091,
      "lation": 4092,
      "ley": 4093,
      "lish": 4094,
      "mu": 4095,
      "mation": 4096,
      "ment": 4097,
      "ns": 4098,
      "nī": 4099,
      "net": 4100,
      "njabi": 4101,
      "os": 4102,
      "oci": 4103,
      "ote": 4104,
      "oks": 4105,
      "pu": 4106,
      "por": 4107,
      "phic": 4108,
      "rt": 4109,
      "su": 4110,
      "sā": 4111,
      "sed": 4112,
      "sep": 4113,
      "soci": 4114,
      "tin": 4115,
      "tal": 4116,
      "ual": 4117,
      "uag": 4118,
      "wley": 4119,
      "yکہا": 4120,
      "year": 4121,
      "ād": 4122,
      "ءع": 4123,
      "ءکی": 4124,
      "ء12": 4125,
      "آب": 4126,
      "آش": 4127,
      "آم": 4128,
      "آگ": 4129,
      "آور": 4130,
      "آکی": 4131,
      "آری": 4132,
      "آنی": 4133,
      "آتا": 4134,
      "آنا": 4135,
      "آئر": 4136,
      "آکٹ": 4137,
      "آٹو": 4138,
      "آسٹری": 4139,
      "آما": 4140,
      "آلات": 4141,
      "أت": 4142,
      "أحسن": 4143,
      "ؤل": 4144,
      "ؤیت": 4145,
      "ؤڈون": 4146,
      "ئس": 4147,
      "ئری": 4148,
      "ئمنگ": 4149,
      "ئلز": 4150,
      "ئلٹی": 4151,
      "ئيں": 4152,
      "اه": 4153,
      "اڑ": 4154,
      "اۃ": 4155,
      "اہے": 4156,
      "اپر": 4157,
      "اعلا": 4158,
      "اشی": 4159,
      "اضل": 4160,
      "اکان": 4161,
      "اڈر": 4162,
      "اضر": 4163,
      "اثی": 4164,
      "اضی": 4165,
      "اچھے": 4166,
      "ااینڈریوز": 4167,
      "بٹ": 4168,
      "بک": 4169,
      "بگ": 4170,
      "بری": 4171,
      "باور": 4172,
      "ببر": 4173,
      "بئی": 4174,
      "بسر": 4175,
      "بوی": 4176,
      "بقری": 4177,
      "بمع": 4178,
      "باند": 4179,
      "بائل": 4180,
      "بخو": 4181,
      "بوقت": 4182,
      "ببلی": 4183,
      "بجے": 4184,
      "بقا": 4185,
      "بجاتے": 4186,
      "بمقابلہ": 4187,
      "بمبا": 4188,
      "بریت": 4189,
      "بوہی": 4190,
      "بؤل": 4191,
      "تخ": 4192,
      "تیں": 4193,
      "توا": 4194,
      "تاب": 4195,
      "توی": 4196,
      "تمد": 4197,
      "تقر": 4198,
      "تاروں": 4199,
      "تقا": 4200,
      "تنز": 4201,
      "تمیز": 4202,
      "تخلیق": 4203,
      "تلاف": 4204,
      "تدوی": 4205,
      "تخل": 4206,
      "تواری": 4207,
      "ثے": 4208,
      "ثار": 4209,
      "ثاب": 4210,
      "ثنا": 4211,
      "ثبو": 4212,
      "ثافت": 4213,
      "ثنیٰ": 4214,
      "جذ": 4215,
      "جع": 4216,
      "جٹ": 4217,
      "جک": 4218,
      "جمی": 4219,
      "جشن": 4220,
      "جاپ": 4221,
      "جاو": 4222,
      "جاع": 4223,
      "جڑی": 4224,
      "جواز": 4225,
      "جعل": 4226,
      "جتنا": 4227,
      "جيت": 4228,
      "جملہ": 4229,
      "جنڈز": 4230,
      "حج": 4231,
      "حس": 4232,
      "حي": 4233,
      "حہ": 4234,
      "حام": 4235,
      "حمد": 4236,
      "حکم": 4237,
      "حانہ": 4238,
      "حرف": 4239,
      "حكی": 4240,
      "حکام": 4241,
      "حالی": 4242,
      "حائل": 4243,
      "حدین": 4244,
      "حلف": 4245,
      "حدگی": 4246,
      "حلوں": 4247,
      "حضر": 4248,
      "حوم": 4249,
      "خن": 4250,
      "خمی": 4251,
      "خار": 4252,
      "خوں": 4253,
      "خول": 4254,
      "خاک": 4255,
      "ختو": 4256,
      "خبار": 4257,
      "خامی": 4258,
      "خالی": 4259,
      "خشک": 4260,
      "خزر": 4261,
      "خروش": 4262,
      "خاطر": 4263,
      "دش": 4264,
      "دلی": 4265,
      "دوا": 4266,
      "دبی": 4267,
      "دکن": 4268,
      "داؤ": 4269,
      "دنوں": 4270,
      "دانت": 4271,
      "دائر": 4272,
      "دمہ": 4273,
      "دشاہ": 4274,
      "دكن": 4275,
      "دایت": 4276,
      "دروس": 4277,
      "دمشق": 4278,
      "دخول": 4279,
      "ذر": 4280,
      "ذي": 4281,
      "ذنی": 4282,
      "ذائی": 4283,
      "ذرہ": 4284,
      "ذکور": 4285,
      "ذرا": 4286,
      "ذشتہ": 4287,
      "رد": 4288,
      "رش": 4289,
      "رم": 4290,
      "رن": 4291,
      "رُ": 4292,
      "رۂ": 4293,
      "ر‎": 4294,
      "رکے": 4295,
      "رال": 4296,
      "رسے": 4297,
      "راب": 4298,
      "ربی": 4299,
      "رست": 4300,
      "رجس": 4301,
      "راں": 4302,
      "رسن": 4303,
      "رلینڈ": 4304,
      "رسال": 4305,
      "رجا": 4306,
      "رواب": 4307,
      "رند": 4308,
      "رخص": 4309,
      "راج": 4310,
      "رطی": 4311,
      "رابر": 4312,
      "رابطہ": 4313,
      "رپلی": 4314,
      "رشپ": 4315,
      "رالڈ": 4316,
      "رائج": 4317,
      "رؤیت": 4318,
      "زپ": 4319,
      "زائے": 4320,
      "زول": 4321,
      "زوال": 4322,
      "ززی": 4323,
      "زاد": 4324,
      "زملک": 4325,
      "زاز": 4326,
      "زامی": 4327,
      "زدگی": 4328,
      "زدگان": 4329,
      "سك": 4330,
      "سور": 4331,
      "سنے": 4332,
      "سدہ": 4333,
      "سمت": 4334,
      "ستی": 4335,
      "سول": 4336,
      "سبھی": 4337,
      "سنڈ": 4338,
      "سلو": 4339,
      "سعد": 4340,
      "سائن": 4341,
      "سفی": 4342,
      "سوی": 4343,
      "سلم": 4344,
      "سکل": 4345,
      "سكے": 4346,
      "ساسی": 4347,
      "سفری": 4348,
      "سعی": 4349,
      "سہل": 4350,
      "سگن": 4351,
      "سہار": 4352,
      "ستھر": 4353,
      "سعو": 4354,
      "سبرگ": 4355,
      "سپین": 4356,
      "سائیڈ": 4357,
      "سڈا": 4358,
      "سلاطی": 4359,
      "سانچہ": 4360,
      "سزا": 4361,
      "سختی": 4362,
      "سيد": 4363,
      "سخن": 4364,
      "سزائے": 4365,
      "شق": 4366,
      "شکر": 4367,
      "شتی": 4368,
      "شفی": 4369,
      "شانی": 4370,
      "شجر": 4371,
      "شفي": 4372,
      "شریف": 4373,
      "شمشی": 4374,
      "شہود": 4375,
      "شملہ": 4376,
      "شجاع": 4377,
      "صۃ": 4378,
      "صی": 4379,
      "صال": 4380,
      "صلی": 4381,
      "صوا": 4382,
      "صبہ": 4383,
      "صغیر": 4384,
      "صرا": 4385,
      "صلاح": 4386,
      "صحت": 4387,
      "ضو": 4388,
      "ضے": 4389,
      "ضائی": 4390,
      "ضاۃ": 4391,
      "طع": 4392,
      "طات": 4393,
      "طاب": 4394,
      "طیات": 4395,
      "طالب": 4396,
      "طویل": 4397,
      "طالبان": 4398,
      "ظفر": 4399,
      "عری": 4400,
      "عوں": 4401,
      "عتی": 4402,
      "عکس": 4403,
      "عفو": 4404,
      "عاش": 4405,
      "عیاں": 4406,
      "عباسی": 4407,
      "عریف": 4408,
      "عابد": 4409,
      "عزیز": 4410,
      "عائد": 4411,
      "عساکر": 4412,
      "عبقری": 4413,
      "عشق": 4414,
      "غم": 4415,
      "غہ": 4416,
      "غان": 4417,
      "غوں": 4418,
      "غلیہ": 4419,
      "غفور": 4420,
      "غاذ": 4421,
      "غصے": 4422,
      "غذائی": 4423,
      "فش": 4424,
      "فف": 4425,
      "فك": 4426,
      "فہ": 4427,
      "فیا": 4428,
      "فوں": 4429,
      "فکر": 4430,
      "فون": 4431,
      "فاؤ": 4432,
      "فقر": 4433,
      "فقد": 4434,
      "فاظ": 4435,
      "فاون": 4436,
      "فعی": 4437,
      "فطری": 4438,
      "فاتح": 4439,
      "فہوم": 4440,
      "فادر": 4441,
      "فاضل": 4442,
      "فضائی": 4443,
      "فعتی": 4444,
      "قق": 4445,
      "قسی": 4446,
      "قاب": 4447,
      "قدو": 4448,
      "قاد": 4449,
      "قبل": 4450,
      "قلم": 4451,
      "قانہ": 4452,
      "قاری": 4453,
      "قاع": 4454,
      "قبال": 4455,
      "قسط": 4456,
      "قاسی": 4457,
      "قاہر": 4458,
      "قند": 4459,
      "قتاً": 4460,
      "قطاری": 4461,
      "قصبہ": 4462,
      "قطع": 4463,
      "كری": 4464,
      "كان": 4465,
      "كال": 4466,
      "كات": 4467,
      "كمل": 4468,
      "كئی": 4469,
      "كبھی": 4470,
      "كسر": 4471,
      "كزی": 4472,
      "كچھ": 4473,
      "كلام": 4474,
      "كڑی": 4475,
      "كنار": 4476,
      "كانگری": 4477,
      "كانفر": 4478,
      "لب": 4479,
      "لة": 4480,
      "لث": 4481,
      "لي": 4482,
      "لڑ": 4483,
      "لاس": 4484,
      "لہر": 4485,
      "لائے": 4486,
      "لنڈ": 4487,
      "لتے": 4488,
      "لمح": 4489,
      "لواقع": 4490,
      "لنگ": 4491,
      "لاتی": 4492,
      "لڑی": 4493,
      "لآخر": 4494,
      "لطی": 4495,
      "لاتے": 4496,
      "ليہ": 4497,
      "لٹرن": 4498,
      "لڑائی": 4499,
      "لائٹس": 4500,
      "لحہ": 4501,
      "مب": 4502,
      "مة": 4503,
      "مُ": 4504,
      "مکی": 4505,
      "ماس": 4506,
      "منی": 4507,
      "ممن": 4508,
      "ممل": 4509,
      "مبہ": 4510,
      "مکس": 4511,
      "مچھ": 4512,
      "مبار": 4513,
      "ماخ": 4514,
      "مكی": 4515,
      "مہی": 4516,
      "مکت": 4517,
      "مجر": 4518,
      "مخصوص": 4519,
      "مخط": 4520,
      "مکتب": 4521,
      "ممان": 4522,
      "ماہی": 4523,
      "مرینا": 4524,
      "مكي": 4525,
      "مسند": 4526,
      "ماسٹرز": 4527,
      "مفرو": 4528,
      "مجلس": 4529,
      "مذکور": 4530,
      "مغلیہ": 4531,
      "مفہوم": 4532,
      "مكمل": 4533,
      "نى": 4534,
      "نری": 4535,
      "نان": 4536,
      "نگٹن": 4537,
      "نول": 4538,
      "نفر": 4539,
      "نون": 4540,
      "نسب": 4541,
      "نجار": 4542,
      "نچی": 4543,
      "نانا": 4544,
      "نكت": 4545,
      "نبات": 4546,
      "نرز": 4547,
      "نشا": 4548,
      "نفین": 4549,
      "نطنی": 4550,
      "نبیوں": 4551,
      "نبوی": 4552,
      "نثار": 4553,
      "هيۃ": 4554,
      "وذ": 4555,
      "وظ": 4556,
      "وع": 4557,
      "وگ": 4558,
      "وتھ": 4559,
      "وفر": 4560,
      "وسٹ": 4561,
      "وکس": 4562,
      "ومس": 4563,
      "وبار": 4564,
      "ودری": 4565,
      "ومط": 4566,
      "ودے": 4567,
      "وحد": 4568,
      "وزٹ": 4569,
      "وانس": 4570,
      "وڈن": 4571,
      "وزن": 4572,
      "وکال": 4573,
      "وائیو": 4574,
      "وپولیس": 4575,
      "وئیں": 4576,
      "وشمس": 4577,
      "وطنی": 4578,
      "وجاہت": 4579,
      "وطات": 4580,
      "ير": 4581,
      "يم": 4582,
      "يور": 4583,
      "يار": 4584,
      "يشن": 4585,
      "يقی": 4586,
      "يون": 4587,
      "ياء": 4588,
      "ّو": 4589,
      "ّاضی": 4590,
      "ٰہ": 4591,
      "ٰۃ": 4592,
      "ٰذا": 4593,
      "ٹم": 4594,
      "ٹائ": 4595,
      "ٹاور": 4596,
      "ٹنی": 4597,
      "ٹہر": 4598,
      "ٹاف": 4599,
      "ٹوی": 4600,
      "ٹوری": 4601,
      "ٹاؤ": 4602,
      "ٹائر": 4603,
      "ٹکرانے": 4604,
      "پچ": 4605,
      "پری": 4606,
      "پال": 4607,
      "پاور": 4608,
      "پنی": 4609,
      "پٹی": 4610,
      "پٹر": 4611,
      "پسن": 4612,
      "پٹری": 4613,
      "پخت": 4614,
      "پانے": 4615,
      "پٹس": 4616,
      "پمنٹ": 4617,
      "پتہ": 4618,
      "پتوں": 4619,
      "پچر": 4620,
      "پامر": 4621,
      "پریس": 4622,
      "پیاز": 4623,
      "چور": 4624,
      "چان": 4625,
      "چلی": 4626,
      "چون": 4627,
      "چوری": 4628,
      "چنا": 4629,
      "چاند": 4630,
      "چمک": 4631,
      "چشتی": 4632,
      "چٹنی": 4633,
      "ڈٹ": 4634,
      "ڈڈ": 4635,
      "ڈکی": 4636,
      "ڈاور": 4637,
      "ڈائن": 4638,
      "ڈبل": 4639,
      "ڈگری": 4640,
      "ڈاؤن": 4641,
      "ڈکٹ": 4642,
      "ڈلن": 4643,
      "ڈالی": 4644,
      "ڈمبر": 4645,
      "ڈانس": 4646,
      "ڈلس": 4647,
      "ڈویژن": 4648,
      "ڈویل": 4649,
      "ڈشری": 4650,
      "ڈيشن": 4651,
      "ڑوں": 4652,
      "ڑبھ": 4653,
      "کائی": 4654,
      "کبر": 4655,
      "کسا": 4656,
      "کفر": 4657,
      "کمال": 4658,
      "کتے": 4659,
      "کانی": 4660,
      "کسن": 4661,
      "کلم": 4662,
      "کچل": 4663,
      "کثر": 4664,
      "کالی": 4665,
      "کٹیو": 4666,
      "کڑی": 4667,
      "کٹنگ": 4668,
      "کچر": 4669,
      "کاسٹ": 4670,
      "کثی": 4671,
      "کفال": 4672,
      "کبیر": 4673,
      "کبریت": 4674,
      "کثافت": 4675,
      "کڑوں": 4676,
      "گیں": 4677,
      "گہر": 4678,
      "گائے": 4679,
      "گانے": 4680,
      "گانا": 4681,
      "گالف": 4682,
      "گآرکائیو": 4683,
      "گفت": 4684,
      "گائیڈ": 4685,
      "گالا": 4686,
      "گنڈا": 4687,
      "گذشتہ": 4688,
      "گزامی": 4689,
      "ھي": 4690,
      "ھنے": 4691,
      "ھتی": 4692,
      "ھتے": 4693,
      "ہٹ": 4694,
      "ہاس": 4695,
      "ہمر": 4696,
      "ہاپ": 4697,
      "ہاں": 4698,
      "ہمد": 4699,
      "ہمس": 4700,
      "ہنگ": 4701,
      "ہجر": 4702,
      "ہائر": 4703,
      "ہائیٹ": 4704,
      "ہضم": 4705,
      "ہانگ": 4706,
      "ہيں": 4707,
      "ہدایت": 4708,
      "یر": 4709,
      "ین": 4710,
      "یقی": 4711,
      "یلو": 4712,
      "یسو": 4713,
      "یئر": 4714,
      "یلات": 4715,
      "یہود": 4716,
      "یروش": 4717,
      "یكسر": 4718,
      "یکسا": 4719,
      "−26": 4720,
      "−15": 4721,
      "میپ": 4722,
      "میسن": 4723,
      "مینس": 4724,
      "میاتی": 4725,
      "میٹھی": 4726,
      "میگال": 4727,
      "میتھوڈ": 4728,
      "مینٹس": 4729,
      "ورش": 4730,
      "ورڈ": 4731,
      "وردی": 4732,
      "وریہ": 4733,
      "ورزی": 4734,
      "ورکس": 4735,
      "ورنز": 4736,
      "ورفت": 4737,
      "ورلڈ": 4738,
      "ورمون": 4739,
      "ورثے": 4740,
      "کیری": 4741,
      "کیوں": 4742,
      "کیپر": 4743,
      "کیات": 4744,
      "کیٹی": 4745,
      "کیسا": 4746,
      "کینڈ": 4747,
      "کیفی": 4748,
      "کینیا": 4749,
      "کیکس": 4750,
      "کیدار": 4751,
      "کیکاؤ": 4752,
      "کیگن": 4753,
      "کیڈاور": 4754,
      "کیورنز": 4755,
      "ریکو": 4756,
      "ریوں": 4757,
      "ریٹر": 4758,
      "ریفر": 4759,
      "ریسر": 4760,
      "ریجن": 4761,
      "ریفی": 4762,
      "ریاتی": 4763,
      "ریڈس": 4764,
      "ریپبلک": 4765,
      "ریڈنگ": 4766,
      "ریحات": 4767,
      "ریکری": 4768,
      "ریفل": 4769,
      "ریڈن": 4770,
      "ریٹنگ": 4771,
      "ریزور": 4772,
      "ریئلٹی": 4773,
      "ریحانہ": 4774,
      "انح": 4775,
      "انٰ": 4776,
      "انکو": 4777,
      "انام": 4778,
      "انتھ": 4779,
      "انوا": 4780,
      "اندہ": 4781,
      "انفار": 4782,
      "انٹس": 4783,
      "انشا": 4784,
      "انگل": 4785,
      "انية": 4786,
      "انگلی": 4787,
      "انكار": 4788,
      "انوى": 4789,
      "انوسٹ": 4790,
      "الي": 4791,
      "الکا": 4792,
      "الام": 4793,
      "المت": 4794,
      "الدو": 4795,
      "المن": 4796,
      "التا": 4797,
      "المل": 4798,
      "الدر": 4799,
      "المر": 4800,
      "المال": 4801,
      "الاف": 4802,
      "المح": 4803,
      "الائن": 4804,
      "الکن": 4805,
      "الوہ": 4806,
      "النظ": 4807,
      "الاص": 4808,
      "الاز": 4809,
      "الغی": 4810,
      "الثر": 4811,
      "القل": 4812,
      "الاصل": 4813,
      "المنظ": 4814,
      "الترجمہ": 4815,
      "الظاہر": 4816,
      "البج": 4817,
      "القا": 4818,
      "النع": 4819,
      "القسم": 4820,
      "الصوف": 4821,
      "الولی": 4822,
      "البیان": 4823,
      "العرب": 4824,
      "الرسائل": 4825,
      "الفین": 4826,
      "المعروف": 4827,
      "الاعلیٰ": 4828,
      "الوجود": 4829,
      "الگون": 4830,
      "الانسان": 4831,
      "الخبر": 4832,
      "التراجم": 4833,
      "الابرار": 4834,
      "الراز": 4835,
      "السہر": 4836,
      "الشعر": 4837,
      "الكلم": 4838,
      "المشاہدہ": 4839,
      "السلام": 4840,
      "الجبل": 4841,
      "الشمس": 4842,
      "الصلا": 4843,
      "الوص": 4844,
      "المقدس": 4845,
      "الغرب": 4846,
      "القرآن": 4847,
      "التواری": 4848,
      "الشہود": 4849,
      "الغفور": 4850,
      "الّو": 4851,
      "الٰہ": 4852,
      "الکبریت": 4853,
      "ارڈ": 4854,
      "ارات": 4855,
      "ارنی": 4856,
      "ارتد": 4857,
      "اردن": 4858,
      "ارٹمنٹ": 4859,
      "ائخ": 4860,
      "ائط": 4861,
      "ائیں": 4862,
      "ائزی": 4863,
      "ائشی": 4864,
      "ائدین": 4865,
      "ائریز": 4866,
      "یاط": 4867,
      "یاری": 4868,
      "یاسین": 4869,
      "یافعی": 4870,
      "اورآپ": 4871,
      "اورنگ": 4872,
      "اورلگ": 4873,
      "اورانگریزی": 4874,
      "اورتخل": 4875,
      "اورسائن": 4876,
      "اسن": 4877,
      "اسات": 4878,
      "اسٹر": 4879,
      "اسلو": 4880,
      "اسعد": 4881,
      "اسمار": 4882,
      "اسکن": 4883,
      "اسٹو": 4884,
      "اسکال": 4885,
      "اسپائی": 4886,
      "اسکاٹ": 4887,
      "اسالا": 4888,
      "اسلحہ": 4889,
      "اسکائی": 4890,
      "اسکینڈ": 4891,
      "کاء": 4892,
      "کات": 4893,
      "کاپی": 4894,
      "کاٹا": 4895,
      "کاٹیج": 4896,
      "ایے": 4897,
      "ایسے": 4898,
      "ایمن": 4899,
      "ایمر": 4900,
      "ایگری": 4901,
      "ایلین": 4902,
      "ایپس": 4903,
      "ایمیز": 4904,
      "ایکوی": 4905,
      "ایوارڈ": 4906,
      "ایمسٹر": 4907,
      "ایگزامی": 4908,
      "لیت": 4909,
      "لید": 4910,
      "لیذ": 4911,
      "لینے": 4912,
      "لیڈی": 4913,
      "لینگ": 4914,
      "لیفٹ": 4915,
      "لیجیئے": 4916,
      "لیجنڈز": 4917,
      "کوام": 4918,
      "کوست": 4919,
      "کوسو": 4920,
      "کوئر": 4921,
      "کولن": 4922,
      "کونو": 4923,
      "کوپن": 4924,
      "کوئن": 4925,
      "کوپل": 4926,
      "کویت": 4927,
      "کوئس": 4928,
      "کواڈر": 4929,
      "کولٹرن": 4930,
      "کومب": 4931,
      "کوٰۃ": 4932,
      "کوڈڈ": 4933,
      "امت": 4934,
      "امک": 4935,
      "امکان": 4936,
      "امارت": 4937,
      "اميد": 4938,
      "امارات": 4939,
      "تھسڈا": 4940,
      "تھانوى": 4941,
      "واو": 4942,
      "وایا": 4943,
      "وادی": 4944,
      "واچی": 4945,
      "واعظ": 4946,
      "واریں": 4947,
      "شنی": 4948,
      "پردہ": 4949,
      "پرانی": 4950,
      "پرامن": 4951,
      "پروڈ": 4952,
      "پروفی": 4953,
      "پرائز": 4954,
      "پرجوش": 4955,
      "پرورش": 4956,
      "سیٹ": 4957,
      "سیۃ": 4958,
      "سیور": 4959,
      "سیکر": 4960,
      "سیائے": 4961,
      "سیوری": 4962,
      "سیکل": 4963,
      "سیکور": 4964,
      "سیوارڈ": 4965,
      "سیشنز": 4966,
      "سیلوٹ": 4967,
      "سیکوئر": 4968,
      "اتار": 4969,
      "اتنی": 4970,
      "اتنا": 4971,
      "اتمان": 4972,
      "اتصال": 4973,
      "دیس": 4974,
      "دیش": 4975,
      "دیق": 4976,
      "دیدہ": 4977,
      "دیوال": 4978,
      "دینا": 4979,
      "دیرین": 4980,
      "دیجیئے": 4981,
      "دیواریں": 4982,
      "کرا": 4983,
      "کرز": 4984,
      "کرم": 4985,
      "کرائے": 4986,
      "کرگھر": 4987,
      "کرگئے": 4988,
      "کرنٹ": 4989,
      "کردگی": 4990,
      "کرایہ": 4991,
      "کردیتے": 4992,
      "کرایے": 4993,
      "کرلینے": 4994,
      "نیت": 4995,
      "نیس": 4996,
      "نیم": 4997,
      "نیکر": 4998,
      "نیائی": 4999,
      "نیول": 5000,
      "نینٹ": 5001,
      "نیكا": 5002,
      "نیچر": 5003,
      "ٹنگٹن": 5004,
      "ٹنسٹ": 5005,
      "ہرش": 5006,
      "ہرن": 5007,
      "ہرایا": 5008,
      "ہرشور": 5009,
      "ہرٹنسٹ": 5010,
      "دہلو": 5011,
      "دہند": 5012,
      "ایکلو": 5013,
      "ابدی": 5014,
      "ابھر": 5015,
      "ابرین": 5016,
      "متلا": 5017,
      "متون": 5018,
      "متکل": 5019,
      "متاخ": 5020,
      "متمول": 5021,
      "متوجہ": 5022,
      "متحر": 5023,
      "متصوف": 5024,
      "متصاد": 5025,
      "متقاضی": 5026,
      "متمنی": 5027,
      "جوس": 5028,
      "جوم": 5029,
      "جوان": 5030,
      "جوہر": 5031,
      "جوانی": 5032,
      "جوؤں": 5033,
      "جوڈشری": 5034,
      "ٹیفل": 5035,
      "ٹیوولی": 5036,
      "ٹیفك": 5037,
      "تیرہ": 5038,
      "تیلے": 5039,
      "تینوں": 5040,
      "تیسری": 5041,
      "تیمور": 5042,
      "تیمیہ": 5043,
      "تیرہویں": 5044,
      "ڈیش": 5045,
      "ڈیل": 5046,
      "ڈیٹ": 5047,
      "ڈیلی": 5048,
      "ڈیلا": 5049,
      "ڈینا": 5050,
      "ڈینس": 5051,
      "ڈیلٹ": 5052,
      "ڈیوائٹ": 5053,
      "ڈیلان": 5054,
      "ڈیفنڈ": 5055,
      "ڈیواز": 5056,
      "ڈیوس": 5057,
      "ڈیمینٹس": 5058,
      "ٹرل": 5059,
      "ٹرڈ": 5060,
      "ٹرلی": 5061,
      "ٹرسٹ": 5062,
      "ٹرسن": 5063,
      "ٹرالی": 5064,
      "ٹرنٹی": 5065,
      "ٹرنز": 5066,
      "ٹرکوں": 5067,
      "ٹرٹین": 5068,
      "ٹرمینس": 5069,
      "لاق": 5070,
      "لاری": 5071,
      "لایا": 5072,
      "لاوا": 5073,
      "لاحات": 5074,
      "لاؤڈون": 5075,
      "لاوڈن": 5076,
      "بیتی": 5077,
      "بیسا": 5078,
      "بیمار": 5079,
      "بیوی": 5080,
      "بیلے": 5081,
      "بیماری": 5082,
      "بیٹا": 5083,
      "بیرات": 5084,
      "بیڑے": 5085,
      "بیلنے": 5086,
      "بیڑا": 5087,
      "بیكنار": 5088,
      "بیتھسڈا": 5089,
      "بینیکر": 5090,
      "ہونی": 5091,
      "ہولو": 5092,
      "ہونیا": 5093,
      "ہوگی": 5094,
      "ہوٹل": 5095,
      "ہومز": 5096,
      "ہوجانے": 5097,
      "ہوگن": 5098,
      "ہوجائیں": 5099,
      "ہویے": 5100,
      "ہویاز": 5101,
      "ہوئيں": 5102,
      "روج": 5103,
      "روي": 5104,
      "روپ": 5105,
      "روے": 5106,
      "روبی": 5107,
      "رونم": 5108,
      "روبات": 5109,
      "روسہ": 5110,
      "روشنی": 5111,
      "دوار": 5112,
      "دوایر": 5113,
      "دولت": 5114,
      "دوہرایا": 5115,
      "منس": 5116,
      "منڈی": 5117,
      "منشی": 5118,
      "منایا": 5119,
      "مناق": 5120,
      "منسٹری": 5121,
      "منصف": 5122,
      "منشور": 5123,
      "منصب": 5124,
      "منفعتی": 5125,
      "جید": 5126,
      "جیسی": 5127,
      "جیتا": 5128,
      "جیرالڈ": 5129,
      "جیکسن": 5130,
      "باء": 5131,
      "باہ": 5132,
      "باری": 5133,
      "بازی": 5134,
      "باقیا": 5135,
      "باڑی": 5136,
      "باقا": 5137,
      "بادشاہ": 5138,
      "باقاع": 5139,
      "تاخی": 5140,
      "تاجر": 5141,
      "تاكہ": 5142,
      "ملنے": 5143,
      "ملٹن": 5144,
      "ملتا": 5145,
      "ملکہ": 5146,
      "ملٹری": 5147,
      "ملفوظ": 5148,
      "ملتوی": 5149,
      "کہہ": 5150,
      "کہنا": 5151,
      "کہلاتی": 5152,
      "برانچ": 5153,
      "براہی": 5154,
      "برداری": 5155,
      "براجم": 5156,
      "برانڈ": 5157,
      "بريت": 5158,
      "برصغیر": 5159,
      "برطاب": 5160,
      "برعکس": 5161,
      "ساز": 5162,
      "ساری": 5163,
      "سازیا": 5164,
      "ساخت": 5165,
      "ساختی": 5166,
      "ساحلوں": 5167,
      "ساوتھ": 5168,
      "قیر": 5169,
      "قیمت": 5170,
      "استثنا": 5171,
      "استقبال": 5172,
      "بنت": 5173,
      "بنتی": 5174,
      "بنتا": 5175,
      "بندوں": 5176,
      "بناتے": 5177,
      "بنجمن": 5178,
      "بنگال": 5179,
      "بنارس": 5180,
      "بنوایا": 5181,
      "ولز": 5182,
      "ولس": 5183,
      "ولے": 5184,
      "ولارڈ": 5185,
      "ولولے": 5186,
      "درى": 5187,
      "درجن": 5188,
      "درست": 5189,
      "دراز": 5190,
      "درخت": 5191,
      "دربان": 5192,
      "درخو": 5193,
      "درآمد": 5194,
      "درآباد": 5195,
      "درواز": 5196,
      "درحقیقت": 5197,
      "پیر": 5198,
      "پیری": 5199,
      "پیسے": 5200,
      "پینڈ": 5201,
      "پیکل": 5202,
      "پینتی": 5203,
      "پیرا": 5204,
      "پیسہ": 5205,
      "پیروی": 5206,
      "پیٹرن": 5207,
      "پیچھے": 5208,
      "پیچیدہ": 5209,
      "پیڈیمینٹس": 5210,
      "پیٹرسن": 5211,
      "مرہ": 5212,
      "مرمت": 5213,
      "مرانی": 5214,
      "مراك": 5215,
      "مربوط": 5216,
      "مراثی": 5217,
      "مرجع": 5218,
      "مرحوم": 5219,
      "مرذنی": 5220,
      "مركزی": 5221,
      "فرق": 5222,
      "فرار": 5223,
      "فرنس": 5224,
      "فرنچ": 5225,
      "فرزند": 5226,
      "فرائز": 5227,
      "بھیجی": 5228,
      "بھیدریائے": 5229,
      "بھیجا": 5230,
      "آپکو": 5231,
      "آپریٹنگ": 5232,
      "گرج": 5233,
      "گرل": 5234,
      "گراؤ": 5235,
      "گرجا": 5236,
      "گرڈز": 5237,
      "گرما": 5238,
      "گرفت": 5239,
      "گرہوں": 5240,
      "گرانٹس": 5241,
      "ونشن": 5242,
      "ونخوا": 5243,
      "نڈم": 5244,
      "نڈنگ": 5245,
      "نڈشپ": 5246,
      "مالیات": 5247,
      "افل": 5248,
      "افادی": 5249,
      "افشا": 5250,
      "افعت": 5251,
      "افسوس": 5252,
      "افطاری": 5253,
      "افغان": 5254,
      "سرد": 5255,
      "سرے": 5256,
      "سرفی": 5257,
      "سردیا": 5258,
      "سرخی": 5259,
      "سربیا": 5260,
      "سرفہرست": 5261,
      "سرما": 5262,
      "سرعت": 5263,
      "سربراہی": 5264,
      "لوپ": 5265,
      "لوبہ": 5266,
      "لوگو": 5267,
      "لوٹا": 5268,
      "لوڈیٹ": 5269,
      "لوولز": 5270,
      "کھو": 5271,
      "کھلے": 5272,
      "کھولا": 5273,
      "کھلتے": 5274,
      "والٹر": 5275,
      "والسر": 5276,
      "والجمال": 5277,
      "والٹڈ": 5278,
      "والمربوط": 5279,
      "زیور": 5280,
      "زینٹ": 5281,
      "زیارت": 5282,
      "جنسی": 5283,
      "جنہیں": 5284,
      "ریاستیں": 5285,
      "ستر": 5286,
      "ستہ": 5287,
      "سترہ": 5288,
      "سترہویں": 5289,
      "اہل": 5290,
      "اہیم": 5291,
      "ادب": 5292,
      "اداس": 5293,
      "ادبی": 5294,
      "ادبا": 5295,
      "ادفی": 5296,
      "اداک": 5297,
      "ادریس": 5298,
      "رہتی": 5299,
      "رہنا": 5300,
      "عدگی": 5301,
      "محل": 5302,
      "محور": 5303,
      "محمو": 5304,
      "محلہ": 5305,
      "محبو": 5306,
      "محافظ": 5307,
      "محاضر": 5308,
      "محراب": 5309,
      "محقق": 5310,
      "محاسن": 5311,
      "محروسہ": 5312,
      "محافل": 5313,
      "مقدار": 5314,
      "مقابل": 5315,
      "اپنى": 5316,
      "اپارٹمنٹ": 5317,
      "اپولس": 5318,
      "بہبو": 5319,
      "جسم": 5320,
      "جسٹ": 5321,
      "سبکی": 5322,
      "سبقت": 5323,
      "سبحان": 5324,
      "1919": 5325,
      "1938": 5326,
      "1920ء": 5327,
      "1918ء": 5328,
      "1958ء": 5329,
      "ترک": 5330,
      "تراق": 5331,
      "ترہوتی": 5332,
      "ترچھے": 5333,
      "تربیت": 5334,
      "تربیتی": 5335,
      "مشکل": 5336,
      "مشعر": 5337,
      "مشكا": 5338,
      "مشیل": 5339,
      "مشاه": 5340,
      "مشائخ": 5341,
      "مشکوٰۃ": 5342,
      "مشروبات": 5343,
      "ائنٹس": 5344,
      "مارس": 5345,
      "مارنگٹن": 5346,
      "مارکوئس": 5347,
      "فیری": 5348,
      "فینی": 5349,
      "فیسٹی": 5350,
      "فیسل": 5351,
      "فینٹی": 5352,
      "فیرس": 5353,
      "فیرسن": 5354,
      "فیّاضی": 5355,
      "کنسن": 5356,
      "کنسل": 5357,
      "کندھ": 5358,
      "کنونشن": 5359,
      "ویب": 5360,
      "وید": 5361,
      "ویک": 5362,
      "ویی": 5363,
      "ویٹن": 5364,
      "ویمن": 5365,
      "وینس": 5366,
      "ویئر": 5367,
      "ویڈیو": 5368,
      "ویکلی": 5369,
      "ویمنز": 5370,
      "ویٹرنز": 5371,
      "بلوا": 5372,
      "بلٹس": 5373,
      "بلاسم": 5374,
      "بلغم": 5375,
      "گیاں": 5376,
      "سٹى": 5377,
      "سٹائل": 5378,
      "تکلیف": 5379,
      "شید": 5380,
      "شیر": 5381,
      "شیٹ": 5382,
      "شیوی": 5383,
      "شیعہ": 5384,
      "شیشہ": 5385,
      "شیریں": 5386,
      "شیشے": 5387,
      "شیڈو": 5388,
      "شیفوں": 5389,
      "شیریڈن": 5390,
      "کانگ": 5391,
      "کانے": 5392,
      "کانفرنس": 5393,
      "میٹر2": 5394,
      "سنگ": 5395,
      "سنگی": 5396,
      "سنگل": 5397,
      "سنٹرل": 5398,
      "1817ء": 5399,
      "1851ء": 5400,
      "1841ء": 5401,
      "1857ء": 5402,
      "1848ء": 5403,
      "موت": 5404,
      "موڑ": 5405,
      "موٹر": 5406,
      "موٹا": 5407,
      "موحدون": 5408,
      "موسمی": 5409,
      "موومنٹ": 5410,
      "موبائل": 5411,
      "موحدین": 5412,
      "موضو": 5413,
      "یوتا": 5414,
      "یوپی": 5415,
      "یوٹیو": 5416,
      "یوٹیلی": 5417,
      "یوسف": 5418,
      "پولینڈ": 5419,
      "پودوں": 5420,
      "پوزر": 5421,
      "پوائنٹس": 5422,
      "آرا": 5423,
      "آرچ": 5424,
      "آرگی": 5425,
      "آرکس": 5426,
      "آرڈر": 5427,
      "آرمز": 5428,
      "آرگن": 5429,
      "آرتھر": 5430,
      "آرایش": 5431,
      "آرتھوڈ": 5432,
      "آرکیٹی": 5433,
      "آرائشی": 5434,
      "لمبائی": 5435,
      "لماء": 5436,
      "جہاز": 5437,
      "کلکتے": 5438,
      "مدنی": 5439,
      "مداخ": 5440,
      "مدنظر": 5441,
      "مدفون": 5442,
      "مدافعت": 5443,
      "مدمقابل": 5444,
      "ناء": 5445,
      "ناز": 5446,
      "ناٹ": 5447,
      "ناکام": 5448,
      "ناغہ": 5449,
      "نامیاتی": 5450,
      "کمانے": 5451,
      "کمایا": 5452,
      "کمزور": 5453,
      "کمپوزر": 5454,
      "گیم": 5455,
      "گیٹ": 5456,
      "گیری": 5457,
      "گیزی": 5458,
      "گیسٹ": 5459,
      "گینٹ": 5460,
      "گیارہ": 5461,
      "گیلوڈیٹ": 5462,
      "عرض": 5463,
      "عراق": 5464,
      "عرصے": 5465,
      "جانسن": 5466,
      "پارے": 5467,
      "پہاڑ": 5468,
      "پہنچی": 5469,
      "پہچان": 5470,
      "معنے": 5471,
      "معنی": 5472,
      "معاف": 5473,
      "معانی": 5474,
      "معاو": 5475,
      "معتد": 5476,
      "معطل": 5477,
      "معجون": 5478,
      "معدوم": 5479,
      "معاشی": 5480,
      "معززی": 5481,
      "معطیات": 5482,
      "معیاری": 5483,
      "کسان": 5484,
      "تعالی": 5485,
      "تعاون": 5486,
      "تعطی": 5487,
      "تعبیر": 5488,
      "تعصب": 5489,
      "تعلي": 5490,
      "تعریفی": 5491,
      "تعبیرات": 5492,
      "مسودے": 5493,
      "رفت": 5494,
      "نظم": 5495,
      "نظارے": 5496,
      "نظیر": 5497,
      "نظریاتی": 5498,
      "گریشن": 5499
    },
    "merges": [
      "م ی",
      "و ر",
      "ک ے",
      "ک ی",
      "ر ی",
      "ا ن",
      "می ں",
      "ا ل",
      "ا ر",
      "ا ئ",
      "ی ا",
      "ا ور",
      "ہ ے",
      "ا س",
      "س ے",
      "ک ا",
      "ا ی",
      "ل ی",
      "ک و",
      "و ں",
      "ا م",
      "ت ھ",
      "ن ے",
      "ی ں",
      "و ا",
      "ش ن",
      "پ ر",
      "س ی",
      "ا ت",
      "د ی",
      "ک ر",
      "ن ی",
      "ہ یں",
      "ٹ ن",
      "ہ ر",
      "د ہ",
      "گ ٹن",
      "ای ک",
      "ا ب",
      "م ت",
      "ج و",
      "ٹ ی",
      "ت ی",
      "ڈ ی",
      "ٹ ر",
      "ل ا",
      "وا شن",
      "واشن گٹن",
      "ب ی",
      "ہ و",
      "ش ہر",
      "ائ ی",
      "ر و",
      "د و",
      "ھ ی",
      "م ن",
      "ج ی",
      "ب ا",
      "ت ا",
      "م ل",
      "ک ہ",
      "ب ر",
      "س ا",
      "ق ی",
      "ئ ی",
      "ی ہ",
      "ائ ے",
      "اس ت",
      "ب ن",
      "و ل",
      "د ر",
      "پ ی",
      "2 0",
      "م ر",
      "ف ر",
      "ب ھی",
      "آ پ",
      "کی ا",
      "گ ر",
      "و ن",
      "ن ڈ",
      "م ال",
      "لی ے",
      "تھ ا",
      "ا ف",
      "س ر",
      "ل و",
      "ک ھ",
      "و ال",
      "ت ے",
      "ز ی",
      "ام ری",
      "ج ن",
      "ری است",
      "س ت",
      "ا ہ",
      "ا د",
      "ر ہ",
      "ع د",
      "ط ور",
      "م ح",
      "م ق",
      "ا پ",
      "ب ہ",
      "ج س",
      "س ب",
      "تھ ی",
      "1 9",
      "ت ر",
      "م ش",
      "ائ ن",
      "ع لا",
      "م ار",
      "ب ڑ",
      "ج ات",
      "ف ی",
      "ک ن",
      "و ی",
      "ح دہ",
      "ب ل",
      "گ یا",
      "شن ل",
      "ان ی",
      "س ٹ",
      "ز یا",
      "ت ک",
      "نی شنل",
      "مت حدہ",
      "زیا دہ",
      "ا ں",
      "ش ی",
      "ض ل",
      "ک ان",
      "می ٹر",
      "ہ ائے",
      "سا تھ",
      "ئ ے",
      "س ن",
      "ن یا",
      "علا ق",
      "ضل ع",
      "1 8",
      "م و",
      "ی و",
      "ور ی",
      "و ف",
      "امری کی",
      "ا ؤ",
      "پ و",
      "ھ ر",
      "آ ر",
      "ل م",
      "ش ام",
      "ریاست ہائے",
      "ج ہ",
      "ک ل",
      "م د",
      "ن ا",
      "ک م",
      "گ ی",
      "جات ا",
      "ح کو",
      "ع ر",
      "ل ے",
      "تھ ے",
      "حکو مت",
      "ج ان",
      "و ہ",
      "0 ء",
      "شام ل",
      "ق ری",
      "پ ار",
      "د یا",
      "ب عد",
      "پ ہ",
      "آ ف",
      "ور جی",
      "مل ک",
      "ورجی نیا",
      "م ع",
      "ک س",
      "ان ہ",
      "ت ع",
      "م س",
      "می ر",
      "کر نے",
      "اب ن",
      "ر ف",
      "ن ظ",
      "گ ری",
      "لی نڈ",
      "ق ع",
      "می ری",
      "س و",
      "س ال",
      "ق و",
      "ن ام",
      "چ ھ",
      "1 7",
      "ا ص",
      "ا ک",
      "ٹ ری",
      "وا قع",
      "ا ری",
      "ت و",
      "د ار",
      "بہ ت",
      "س ٹی",
      "ن س",
      "ج ار",
      "ک ار",
      "س یا",
      "آ با",
      "ب ار",
      "20 1",
      "ل ائن",
      "ن م",
      "0 0",
      "ع مار",
      "گ ھر",
      "ا ز",
      "ا و",
      "ٹ ل",
      "1 ء",
      "ا خ",
      "ت ح",
      "د ور",
      "س م",
      "اہ م",
      "عر بی",
      "عمار ت",
      "ص و",
      "ن گ",
      "میٹر و",
      "اؤ ن",
      "ئ ر",
      "ج ل",
      "خ ت",
      "م ول",
      "ن ہیں",
      "اس ٹی",
      "وف ا",
      "ص در",
      "ق ت",
      "ك ے",
      "کان گری",
      "وفا قی",
      "ا ع",
      "ا می",
      "د ری",
      "ک ٹ",
      "ان د",
      "ائ ب",
      "کر تے",
      "وال ے",
      "اپ نے",
      "ف ار",
      "ان ے",
      "ائ م",
      "ت قری",
      "ك ی",
      "چ ی",
      "ہ وا",
      "کا م",
      "ہو ئی",
      "جار ج",
      "کانگری س",
      "ر کھ",
      "غ ی",
      "گ ئی",
      "ار دو",
      "مق ام",
      "یو نی",
      "پار ک",
      "ا یا",
      "ا دی",
      "ض اف",
      "چ ل",
      "گ ئے",
      "ری ن",
      "ان ا",
      "کر تا",
      "نی و",
      "ا ح",
      "ش مال",
      "ہ ی",
      "می ل",
      "د ف",
      "آبا دی",
      "ب ال",
      "خ ی",
      "م ط",
      "گ و",
      "اپ نی",
      "پو لی",
      "ع ہ",
      "ل ہ",
      "ک ت",
      "می و",
      "لی ن",
      "با ً",
      "مر ک",
      "بڑ ے",
      "ا ق",
      "ج ب",
      "ل ن",
      "ن و",
      "می م",
      "علاق ے",
      "قو می",
      "اسٹی شن",
      "غی ر",
      "ب یا",
      "ث ر",
      "ح ص",
      "س پ",
      "ٹ اؤن",
      "ال ی",
      "ائ ل",
      "یا د",
      "ات ی",
      "دی ن",
      "20 0",
      "2 ء",
      "ج م",
      "ذ ری",
      "ٹ و",
      "کو لم",
      "اب ق",
      "بی ن",
      "رہ ائ",
      "مش ر",
      "خ د",
      "س ط",
      "ق ل",
      "ن وں",
      "ک لو",
      "ہ ن",
      "ال حکومت",
      "کولم بیا",
      "کلو میٹر",
      "ب ان",
      "غ ر",
      "ق ائم",
      "ڈ س",
      "ڈ ھ",
      "ہ م",
      "ہ ور",
      "ی م",
      "ری ا",
      "ہو ئے",
      "پی ش",
      "وری ل",
      "دور ان",
      "تقری باً",
      "میم وریل",
      "ر ح",
      "س ل",
      "ش رو",
      "ط رف",
      "ل ف",
      "ن ٹی",
      "می ک",
      "ان ت",
      "ان ھ",
      "دی گر",
      "اص ل",
      "صو ص",
      "شرو ع",
      "ب ھ",
      "م سا",
      "ن ٹ",
      "چ ار",
      "ال ح",
      "ای س",
      "لی م",
      "کر تی",
      "تی ن",
      "ہو نے",
      "دری ائے",
      "مرک ز",
      "رہائ شی",
      "ب ش",
      "د گی",
      "اس ی",
      "وا می",
      "دہ ائی",
      "زی م",
      "شی خ",
      "مسا فر",
      "1 4",
      "س رو",
      "ش ت",
      "ف و",
      "ق ر",
      "ل ق",
      "و جہ",
      "ٹ س",
      "پ ٹل",
      "ک ھی",
      "کا ؤ",
      "مش ہور",
      "بڑ ی",
      "علاق ہ",
      "پہ لے",
      "تع میر",
      "مس لم",
      "ٹری ٹ",
      "میو زیم",
      "8 ء",
      "ت ص",
      "ل ائب",
      "ڈ ر",
      "می ن",
      "کی پٹل",
      "ال م",
      "اس کو",
      "ٹر کٹ",
      "مق امی",
      "یونی ور",
      "ڈس ٹرکٹ",
      "کاؤ نٹی",
      "لائب ری",
      "6 ء",
      "آ ئی",
      "ب د",
      "ت نظ",
      "ز بان",
      "م ص",
      "پ ور",
      "پ بل",
      "چ و",
      "ان وں",
      "ار وں",
      "اس ے",
      "ہو تا",
      "تا ری",
      "مح مد",
      "بڑ ا",
      "5 ء",
      "ا ے",
      "ت د",
      "ت ش",
      "ت م",
      "ج ر",
      "ر ہے",
      "ع ے",
      "ق د",
      "م ز",
      "ک ئی",
      "اس ٹریٹ",
      "کا ری",
      "من ٹ",
      "مط ابق",
      "لائبری ری",
      "پبل ک",
      "ا ش",
      "ا ڈ",
      "ا جل",
      "ب س",
      "ج سے",
      "ح اصل",
      "خ و",
      "س فر",
      "ق اف",
      "ك ا",
      "م لا",
      "م غر",
      "و و",
      "و ار",
      "ڈ نگ",
      "ک ور",
      "گ زی",
      "ان چ",
      "سی ن",
      "من ظ",
      "لو گ",
      "امری کا",
      "عد اد",
      "پو ٹو",
      "پولی ٹن",
      "ہن دو",
      "پوٹو میک",
      "7 ء",
      "ث قاف",
      "ج ا",
      "ح ات",
      "د ے",
      "ر انی",
      "ع مال",
      "ف ن",
      "م لین",
      "و قت",
      "ہ اؤ",
      "ٹی و",
      "دو سر",
      "من ت",
      "جی سے",
      "است عمال",
      "وال ی",
      "جن گ",
      "جان ے",
      "میٹرو پولیٹن",
      "ڈھ ول",
      "سرو س",
      "یونیور سٹی",
      "3 ء",
      "آ ز",
      "ا ظ",
      "ا ضاف",
      "ب لی",
      "ر س",
      "س ری",
      "ش ہ",
      "ص د",
      "ع ام",
      "ف ری",
      "ك ت",
      "م خت",
      "ن چ",
      "گ ھ",
      "ی ار",
      "لی کن",
      "ات ا",
      "نی ن",
      "تی ار",
      "پی د",
      "فر اہم",
      "ست ان",
      "رہ ا",
      "تر جم",
      "مو جو",
      "جان ا",
      "قری ب",
      "نظ ام",
      "سیا ح",
      "بش مول",
      "تنظ یم",
      "ہاؤ س",
      "ح د",
      "خ ر",
      "خ صوص",
      "د ھ",
      "ذ کر",
      "ق یا",
      "ل گ",
      "ل وں",
      "م ضاف",
      "و ائ",
      "ٹ ھ",
      "پ ڑ",
      "پ اس",
      "ڈ ال",
      "ک ری",
      "ک چھ",
      "کی ے",
      "ال ف",
      "ال اق",
      "ال دین",
      "ائ ش",
      "یا دی",
      "ای نڈ",
      "دو سری",
      "کہ ا",
      "بن یادی",
      "سر کاری",
      "بل ڈنگ",
      "سٹ ری",
      "وہ اں",
      "نم ائن",
      "عمارت وں",
      "مول انا",
      "ذری عے",
      "الاق وامی",
      "ا ہر",
      "ا ثر",
      "ب ے",
      "ت مل",
      "ت عداد",
      "ح مل",
      "ط ان",
      "ك و",
      "م ات",
      "ک سی",
      "می ان",
      "ری ست",
      "وا ب",
      "کر نا",
      "ٹی م",
      "ٹر ان",
      "شہر وں",
      "تا ہم",
      "در میان",
      "گر س",
      "وال ا",
      "تھی ٹر",
      "تر قی",
      "مش تمل",
      "کان گرس",
      "علاق وں",
      "مقام ات",
      "مشر قی",
      "تاری خی",
      "تم ام",
      "دوسر ے",
      "ریست ور",
      "9 ء",
      "ا تھ",
      "ا ون",
      "ب و",
      "ب ات",
      "ج ائے",
      "ر ز",
      "ل ائی",
      "ل کھ",
      "پ ھر",
      "ک می",
      "گ ڑ",
      "یا ت",
      "یا ں",
      "اب و",
      "ڈی ز",
      "رو ز",
      "دو نوں",
      "زی ر",
      "جن و",
      "اپ نا",
      "19 7",
      "19 9",
      "کم پ",
      "پہ نچ",
      "سیا سی",
      "201 0ء",
      "تح قی",
      "دف تر",
      "کت اب",
      "لن گٹن",
      "خد مات",
      "1 2",
      "ت رین",
      "ج ام",
      "ج ائب",
      "د نیا",
      "ز ٹ",
      "س سٹ",
      "ش دہ",
      "ع جائب",
      "ف ل",
      "م بر",
      "ن د",
      "ن ک",
      "ن ہ",
      "گ ا",
      "ای م",
      "ای ن",
      "ای و",
      "دی د",
      "ہو تی",
      "در جہ",
      "اف ری",
      "انھ یں",
      "قر ار",
      "سین ٹر",
      "مخت لف",
      "ا ول",
      "ب ول",
      "ت ہ",
      "ت ار",
      "ج ھ",
      "خ ط",
      "د ن",
      "ع ی",
      "ك ہ",
      "ل ام",
      "م ک",
      "ن ف",
      "و ے",
      "و سی",
      "ڑ ی",
      "ری ل",
      "ان س",
      "ان ٹر",
      "ار ے",
      "ائ ع",
      "لی گ",
      "دی کھ",
      "اب ل",
      "اب تد",
      "مت عد",
      "جو لائی",
      "لا گو",
      "رو ف",
      "20 2",
      "19 6",
      "جات ی",
      "فی صد",
      "مو سی",
      "آر لنگٹن",
      "جہ اں",
      "سال انہ",
      "17 8",
      "00 0",
      "یونی ن",
      "سپ ری",
      "الی گزی",
      "رہائشی وں",
      "ملا ز",
      "ٹیو شن",
      "قیا م",
      "ٹران زٹ",
      "ڈیز ائن",
      "متعد د",
      "لاگو س",
      "الیگزی نڈ",
      "1 6",
      "i a",
      "ب ع",
      "ح ی",
      "ح سن",
      "ر است",
      "س فار",
      "ش ا",
      "ش ائع",
      "ص رف",
      "ط رح",
      "ع لی",
      "ع بد",
      "ك ر",
      "ك یا",
      "ل ٹ",
      "ن قل",
      "ڈ ن",
      "گ ہ",
      "گ ار",
      "گ رو",
      "ہ ل",
      "ان سٹی",
      "ائ ر",
      "ای ڈ",
      "تھ سو",
      "ہو ائی",
      "بر طان",
      "مار چ",
      "تع لیم",
      "17 7",
      "تو حات",
      "اخ تیار",
      "سم تھسو",
      "حص ہ",
      "مشر ق",
      "اجل اس",
      "ثقاف تی",
      "پید ا",
      "ترجم ہ",
      "مضاف اتی",
      "وائ ٹ",
      "ڈال ر",
      "کمپ نی",
      "1 0",
      "آ مد",
      "ا میر",
      "ب ور",
      "ج اری",
      "ج دید",
      "ج گہ",
      "ح ال",
      "خ ص",
      "خ لا",
      "خ اند",
      "ز ن",
      "س ک",
      "ص ہ",
      "ص دی",
      "ط ہ",
      "ع مر",
      "ل ان",
      "م ض",
      "م کہ",
      "پ نس",
      "ک ش",
      "ک ال",
      "گ ن",
      "ہ ار",
      "کی ہ",
      "ان یا",
      "نی ٹ",
      "ٹن گ",
      "ائی و",
      "رو ح",
      "بن ایا",
      "مال ک",
      "لو انیا",
      "امری کن",
      "آبا د",
      "بار ہ",
      "تح ری",
      "اند از",
      "رکھ ا",
      "شمال ی",
      "کت ب",
      "لن کن",
      "ذری عہ",
      "انھ وں",
      "كت اب",
      "نمائن دگی",
      "مک مل",
      "موسی قی",
      "سمتھسو نین",
      "پنس لوانیا",
      "i k",
      "آ خر",
      "ا ج",
      "ت وں",
      "ج ے",
      "ج مو",
      "د وں",
      "د ست",
      "د اد",
      "ش ادی",
      "ش رح",
      "ش خص",
      "ط ن",
      "ع ظ",
      "ف ٹ",
      "ف توحات",
      "ق ان",
      "ق ات",
      "ق ابل",
      "م خ",
      "م گر",
      "م جمو",
      "ن ش",
      "ن تی",
      "و گر",
      "گ ل",
      "کی ن",
      "ری لو",
      "ال لہ",
      "ایک ٹ",
      "ٹی کس",
      "تی ز",
      "لا می",
      "جی فر",
      "یہ اں",
      "ون کہ",
      "مح سن",
      "بڑ ھ",
      "پو سٹ",
      "آر ٹس",
      "رف تار",
      "نظ ر",
      "خت م",
      "پولی س",
      "انت ظ",
      "اسکو ل",
      "مغر بی",
      "لوگ وں",
      "اضاف ہ",
      "سٹری ٹ",
      "ابتد ائی",
      "الیگزینڈ ریا",
      "خاند ان",
      "جیفر سن",
      "1 3",
      "3 0",
      "e d",
      "o n",
      "ا گ",
      "ب ائی",
      "ت جار",
      "ج د",
      "ج ز",
      "ح ر",
      "ح اظ",
      "خ ب",
      "خ ان",
      "خ اب",
      "خ اص",
      "ذ ی",
      "ش ک",
      "ص ف",
      "ط رز",
      "ظ اہر",
      "ف نڈ",
      "ق ہ",
      "ق دی",
      "ل یا",
      "ل ون",
      "م اری",
      "ن ائ",
      "ن واب",
      "و پ",
      "پ س",
      "پ ن",
      "ڈ ور",
      "گ ے",
      "می ت",
      "کی پی",
      "ان در",
      "ال ع",
      "ال ملک",
      "ال قد",
      "لی ہ",
      "تھ ر",
      "پر نس",
      "سی د",
      "دی نے",
      "مت ع",
      "من صو",
      "با شن",
      "مل کی",
      "بن انے",
      "سر کل",
      "لو م",
      "مق اب",
      "مق بول",
      "علا وہ",
      "کن گ",
      "گی ل",
      "مع ی",
      "مس ائل",
      "سو یں",
      "نس ل",
      "اخ بار",
      "انت خاب",
      "مسلم انوں",
      "منت خب",
      "شہ ری",
      "یار ک",
      "موجو د",
      "خصوص ی",
      "ریستور اں",
      "سسٹ م",
      "قدی م",
      "کیپی ٹل",
      "5 9",
      "6 0",
      "ب ج",
      "ب ھر",
      "ر اک",
      "ز ر",
      "ز مین",
      "س ڑ",
      "ش ش",
      "ش ماری",
      "ط ل",
      "ع و",
      "ع ال",
      "ف ور",
      "ف ہر",
      "ف اں",
      "ق ا",
      "م ہ",
      "م ان",
      "ن ر",
      "ن ز",
      "ن ع",
      "ن ار",
      "و سط",
      "ٹ ے",
      "پ وری",
      "پ ابن",
      "چ ر",
      "ڈ ز",
      "ک وری",
      "کی ل",
      "کی ں",
      "ار ت",
      "اس ٹ",
      "ای ف",
      "ای ل",
      "ای چ",
      "کو شش",
      "وا ٹر",
      "من گ",
      "جی ریا",
      "با غ",
      "بن ا",
      "مر اد",
      "فر م",
      "گر د",
      "ون ٹ",
      "جن ھ",
      "مح کم",
      "مار ک",
      "18 0",
      "وف ات",
      "17 9",
      "اک ثر",
      "ٹری ن",
      "سیا ہ",
      "بار ے",
      "قت ل",
      "اح مد",
      "نو ع",
      "اسٹیشن وں",
      "حص ے",
      "سط ح",
      "تش کیل",
      "خو د",
      "مغر ب",
      "منت قل",
      "آز اد",
      "آز ادی",
      "بلی و",
      "تنظیم وں",
      "کری ک",
      "ایو نیو",
      "وسی ع",
      "ملاز مت",
      "برطان یہ",
      "ik i",
      "لون فاں",
      "نائ جیریا",
      "گیل ری",
      "فہر ست",
      "پابن دی",
      "2 7",
      "4 ء",
      "i n",
      "r a",
      "آ غ",
      "ا قت",
      "ب ت",
      "ب غ",
      "ب نی",
      "ت ب",
      "ح ل",
      "خ انہ",
      "د س",
      "د ل",
      "ض ر",
      "ط ی",
      "ط وف",
      "ع ص",
      "ف ي",
      "ف ام",
      "ف صوص",
      "ق سم",
      "ك م",
      "م ا",
      "م کیہ",
      "م مالک",
      "ن دی",
      "و یں",
      "ٹ ا",
      "پ اک",
      "پ انچ",
      "ک بھی",
      "ک ائیو",
      "ہ سپ",
      "می ڈ",
      "می ڈی",
      "ور ک",
      "کی ونکہ",
      "ری و",
      "ان ڈی",
      "ان گری",
      "ار ٹر",
      "یا تی",
      "کو ں",
      "کو سٹ",
      "کو نسل",
      "کو ارٹر",
      "وا ز",
      "وا ں",
      "ایک سپری",
      "اب ر",
      "مت اثر",
      "تی سر",
      "ائی ٹ",
      "دو د",
      "با ہر",
      "بر گ",
      "بن دی",
      "مر د",
      "گر می",
      "وال د",
      "وال وں",
      "ست مبر",
      "اہ ی",
      "اد اروں",
      "رہ ی",
      "19 0",
      "18 1",
      "18 8",
      "18 9",
      "آر کائیو",
      "کل اسی",
      "پہ لی",
      "مع اہ",
      "تع لق",
      "چھ و",
      "اک بر",
      "تو جہ",
      "او سط",
      "عمارت یں",
      "رکھ نے",
      "چل نے",
      "ہی ڈ",
      "بال ٹیم",
      "مط ال",
      "پیش ہ",
      "فو جی",
      "تص وف",
      "پور ے",
      "جنو ب",
      "تحقی قی",
      "افری قی",
      "زن دگی",
      "عظ یم",
      "مخ الف",
      "شک ست",
      "متع لق",
      "معی شت",
      "طل بہ",
      "طوف ان",
      "پاک ستان",
      "کوسٹ یا",
      "ایکسپری س",
      "بالٹیم ور",
      "2 4",
      "o m",
      "p ed",
      "آ س",
      "ب وں",
      "ب انی",
      "ج ائ",
      "ج زی",
      "ح قو",
      "خ لی",
      "د اری",
      "د اخ",
      "ر ا",
      "ر نگ",
      "س ام",
      "ش ر",
      "ش مار",
      "ص دار",
      "ط ری",
      "ع وامی",
      "ع قد",
      "ع اجل",
      "غ لام",
      "ل ز",
      "ل س",
      "ل حاظ",
      "ن ق",
      "ن گر",
      "و س",
      "و لیم",
      "ٹ ک",
      "پ ھی",
      "ک نی",
      "ہ اور",
      "می ز",
      "می ئر",
      "ال ب",
      "ائ سن",
      "ای ك",
      "ای تھ",
      "کو ئی",
      "پر فار",
      "ات ر",
      "ات ے",
      "کر دہ",
      "نی وی",
      "ٹر ز",
      "ہو تے",
      "رو نی",
      "دو بارہ",
      "من عقد",
      "جی سا",
      "مل ك",
      "بر س",
      "بر قرار",
      "بن یاد",
      "بن اتا",
      "20 19",
      "مر بع",
      "فر نٹ",
      "مال یاتی",
      "ریاست وں",
      "وی سٹ",
      "18 6",
      "18 7",
      "آر ٹ",
      "پہ لا",
      "مس جد",
      "نم ایا",
      "گھر وں",
      "سم جھ",
      "جل د",
      "جارج ز",
      "انا کوسٹیا",
      "دف اتر",
      "بال کل",
      "چار ٹر",
      "وو ٹنگ",
      "منظ ور",
      "فری ڈر",
      "جنو بی",
      "جام عہ",
      "انٹر نیشنل",
      "بور ڈ",
      "خلا ف",
      "نتی جے",
      "القد س",
      "عال می",
      "محکم ہ",
      "iki ped",
      "آغ از",
      "انگری زی",
      "جزی رہ",
      "حقو ق",
      "عاجل انہ",
      "2019 ء",
      "نمایا ں",
      "ikiped ia",
      "2 6",
      "3 8",
      "4 00",
      "7 0",
      "a l",
      "e n",
      "آ نے",
      "آ گے",
      "ؤ ں",
      "ئ یں",
      "ا فر",
      "ا ٹھ",
      "ب ذریعہ",
      "ث ی",
      "ث انی",
      "خ ری",
      "خ وا",
      "د سم",
      "ذ ہ",
      "ز ار",
      "س ہ",
      "س ابق",
      "ش اور",
      "ص وف",
      "ص نع",
      "ع م",
      "ع مل",
      "ع الم",
      "ف ت",
      "ف لا",
      "ف اؤن",
      "ق ب",
      "م ي",
      "م ور",
      "م زی",
      "م ست",
      "و لی",
      "پ ائی",
      "پ انی",
      "پ شاور",
      "ڈ بلیو",
      "گ اہ",
      "گ اری",
      "ہ ف",
      "می اب",
      "ور ت",
      "کی نی",
      "ری نا",
      "ان سی",
      "ال أ",
      "ار ہ",
      "کا ٹ",
      "ای جن",
      "تھ ام",
      "تھ یں",
      "پر وگر",
      "سی ہ",
      "دہ شت",
      "اب طہ",
      "مت نوع",
      "جو ن",
      "ٹی ن",
      "تی ب",
      "ڈی و",
      "ڈی شن",
      "بی س",
      "بی ان",
      "بی سویں",
      "دو ست",
      "در ج",
      "پی ن",
      "پی ئر",
      "20 ء",
      "مر اک",
      "فر وری",
      "سر حد",
      "سر سید",
      "کھ انے",
      "جن وری",
      "اد ارے",
      "مح لے",
      "تر تیب",
      "فی کس",
      "فی ئر",
      "بل ندی",
      "مد د",
      "عر ب",
      "میری ن",
      "اک تو",
      "کار وں",
      "201 2ء",
      "201 6ء",
      "تح ت",
      "اع لی",
      "اع لان",
      "خی ال",
      "یاد گار",
      "خد مت",
      "کلومیٹر 2",
      "بھ اری",
      "مسافر وں",
      "کھی ل",
      "تص ور",
      "ڈر ل",
      "اسکو ائر",
      "آئی ن",
      "مص روف",
      "وو ٹ",
      "ثقاف ت",
      "رس ائل",
      "موجو دہ",
      "سیاح وں",
      "سیاح تی",
      "لکھ تے",
      "199 0ء",
      "اول ڈ",
      "202 2ء",
      "کال ج",
      "قان ون",
      "نش ان",
      "ریلو ے",
      "نار تھ",
      "ہسپ ان",
      "میڈ یا",
      "تیسر ا",
      "کلاسی کی",
      "مخالف ت",
      "افر اد",
      "دسم بر",
      "فاؤن ڈیشن",
      "مزی د",
      "پروگر ام",
      "اکتو بر",
      "1 5",
      "1 00",
      "3 9",
      "4 6ء",
      "W ikipedia",
      "a t",
      "b i",
      "e r",
      "i c",
      "o r",
      "s t",
      "u s",
      "آ ن",
      "آ بش",
      "آ ٹھ",
      "ؤ تھ",
      "ئ ن",
      "ا ً",
      "ا ٹ",
      "ا گر",
      "ب خ",
      "ت ز",
      "ت ال",
      "ت خت",
      "ث یہ",
      "ح ا",
      "ح ق",
      "خ ف",
      "د ائ",
      "د کان",
      "ر ات",
      "ر کن",
      "ر کھی",
      "ز م",
      "س ائ",
      "س ٹن",
      "س میت",
      "ص اف",
      "ص ادی",
      "ص اح",
      "ض ہ",
      "ض ابطہ",
      "ط ائی",
      "ع ث",
      "ع ل",
      "ع لوم",
      "غ لامی",
      "ف ک",
      "ف تح",
      "ل ڈ",
      "م سی",
      "م اہ",
      "م ظاہر",
      "ن ئی",
      "و جو",
      "و طن",
      "ٕ ں",
      "ٹ منٹ",
      "پ ل",
      "چ لا",
      "چ ائن",
      "ک شن",
      "گ ور",
      "گ ان",
      "ہ ال",
      "ی ت",
      "ی ون",
      "کی ٹ",
      "ال إ",
      "ار ا",
      "ار ف",
      "ار ٹی",
      "اس لام",
      "اس لامی",
      "کا میاب",
      "ای ہ",
      "ای شن",
      "ای سو",
      "ای ئر",
      "ای رینا",
      "کو ز",
      "ات ح",
      "دی تا",
      "مت ن",
      "جو ڑ",
      "ٹی لی",
      "ڈی لف",
      "لا ح",
      "بی لٹ",
      "بی لیہ",
      "ائی ڈ",
      "رو ی",
      "من در",
      "با ضابطہ",
      "کہ تے",
      "بر ف",
      "بر ائے",
      "بر اہ",
      "سا ؤتھ",
      "بن در",
      "پی م",
      "20 20ء",
      "مر سیہ",
      "مر ثیہ",
      "اف ت",
      "اد ا",
      "رہ نم",
      "مح ی",
      "مح فل",
      "مح دود",
      "بہ نوں",
      "مار ٹن",
      "جات ے",
      "فی د",
      "فی ن",
      "کن ارے",
      "مو سم",
      "پار کنگ",
      "مع روف",
      "میر اتھ",
      "17 ء",
      "ٹری فک",
      "201 1ء",
      "201 3ء",
      "لائن یں",
      "نم بر",
      "اع ت",
      "تقری بات",
      "چی ز",
      "چی نی",
      "چل اتی",
      "مرک زی",
      "200 9ء",
      "ڈھ انچ",
      "سل طن",
      "الح كم",
      "شت ہ",
      "فو ظ",
      "اسکو لوں",
      "تاری خ",
      "اش بیلیہ",
      "اڈ ا",
      "اڈ ے",
      "کور ٹ",
      "منظ وری",
      "ہندو ؤں",
      "اضاف ی",
      "گھ نٹ",
      "اینڈ ریو",
      "اتھ ارٹی",
      "197 0ء",
      "197 6ء",
      "پہنچ ے",
      "202 1ء",
      "196 0ء",
      "178 3ء",
      "سپری م",
      "راست ے",
      "سفار ت",
      "گرو پ",
      "مجمو عی",
      "انتظ ام",
      "انتظ امی",
      "بائی ک",
      "تجار تی",
      "باشن دے",
      "مقاب لے",
      "اقت صادی",
      "میڈی سن",
      "مرد م",
      "181 2ء",
      "خلی ق",
      "صدار تی",
      "غلام وں",
      "نگر انی",
      "ہاور ڈ",
      "میز بانی",
      "فریڈر ک",
      "فلا ڈیلف",
      "تھام س",
      "مراک ز",
      "اعلی ٰ",
      "آبش ار",
      "دائ رہ",
      "صاح ب",
      "وجو د",
      "چائن ا",
      "ایسو سی",
      "بندر گاہ",
      "میراتھ ن",
      "سلطن ت",
      "فلاڈیلف یا",
      "1 1",
      "2 8",
      "3 2",
      "5 0",
      "5 0ء",
      "9 7",
      "b n",
      "آ دھ",
      "ا ط",
      "ا جم",
      "ب جانے",
      "ت س",
      "ت ق",
      "ت لو",
      "ت فری",
      "ت ذکر",
      "ج ھی",
      "ج از",
      "ح ف",
      "خ ات",
      "خ اں",
      "د د",
      "د ات",
      "د گان",
      "ذ خی",
      "ر ق",
      "ر ل",
      "ر کنی",
      "ر شتہ",
      "ز ک",
      "ز ور",
      "س س",
      "س پی",
      "س کاٹ",
      "ش ع",
      "ش ور",
      "ش اہ",
      "ش اخ",
      "ش اع",
      "ص نف",
      "ض ی",
      "ط و",
      "ع ت",
      "ع ن",
      "ع لم",
      "غ ال",
      "ق بر",
      "ك ي",
      "ل ات",
      "م ث",
      "م پ",
      "م ری",
      "م قی",
      "م اں",
      "م ملک",
      "م ڈن",
      "ن جی",
      "ن کل",
      "ن صف",
      "و ق",
      "و نی",
      "و ٕں",
      "ي ة",
      "پ ا",
      "پ گ",
      "پ ھ",
      "پ لی",
      "پ نک",
      "پ تھر",
      "چ لے",
      "ڈ پار",
      "ڈ وپ",
      "ژ ن",
      "ک لی",
      "گ لی",
      "گ ون",
      "ہ تھی",
      "ہ اتھ",
      "می د",
      "ری ڈ",
      "ری اس",
      "ری کار",
      "ان ٹ",
      "ان کار",
      "ان جام",
      "ال ا",
      "ال ملك",
      "اس م",
      "ای لی",
      "ای ریا",
      "لی بل",
      "لی کس",
      "کو ٹ",
      "ام ر",
      "ام ن",
      "تھ نک",
      "وا پس",
      "دی ث",
      "دی ے",
      "کر ے",
      "ایک ڑ",
      "ٹر ول",
      "لا ف",
      "لا کھ",
      "بی نڈ",
      "بی ٹے",
      "ہو ل",
      "ہو م",
      "من دو",
      "جی مز",
      "با ؤ",
      "تا ح",
      "مل تی",
      "بن د",
      "20 17ء",
      "مر کوز",
      "اف ی",
      "جن رل",
      "اہ میت",
      "مح فوظ",
      "19 3",
      "19 8",
      "تر کہ",
      "مش ترکہ",
      "ائن ٹ",
      "علا حدہ",
      "کن سر",
      "کن ٹرول",
      "وی لٹ",
      "وی ژن",
      "بل کہ",
      "بل ند",
      "شی کس",
      "شی ئر",
      "کان سٹی",
      "سن د",
      "علاق ائی",
      "مو نیو",
      "اؤ ں",
      "آر ائش",
      "مد ت",
      "جان ب",
      "قری بی",
      "پار کس",
      "آف س",
      "سال ہ",
      "قو م",
      "قو ام",
      "اص لاح",
      "ٹری ک",
      "201 5ء",
      "او ائل",
      "اند لس",
      "رکھ ے",
      "رکھ تا",
      "چل تی",
      "دف اع",
      "یاد گاری",
      "200 8ء",
      "200 7ء",
      "ہن دی",
      "بھ ائی",
      "الح دیث",
      "مسلم ان",
      "مص نف",
      "تش دد",
      "ملا قات",
      "وار ف",
      "منظ ر",
      "ہندو وٕں",
      "گھ ریلو",
      "یار ڈ",
      "سیاح ت",
      "مضاف ات",
      "اون چ",
      "روز ویلٹ",
      "تحقی ق",
      "سسٹ مز",
      "گا ڑی",
      "انس ان",
      "انس انی",
      "دیکھ ا",
      "دیکھ ے",
      "بع ض",
      "گرو ہ",
      "177 7ء",
      "اختیار ات",
      "کمپنی وں",
      "آمد نی",
      "ہار ڈ",
      "تحری ک",
      "تجار ت",
      "جز وی",
      "ذی ل",
      "وپ یا",
      "باشن دوں",
      "مقاب لہ",
      "بج ٹ",
      "سڑ کیں",
      "عو ام",
      "کوری ڈور",
      "باغ ات",
      "فرم ائش",
      "جنھ وں",
      "جنھ یں",
      "179 1ء",
      "in g",
      "ra bi",
      "بغ او",
      "تب دی",
      "عص ری",
      "گرمی وں",
      "جائ یں",
      "داخ لہ",
      "الب تہ",
      "ایتھ وپیا",
      "پرفار منگ",
      "سمجھ ا",
      "صوف یا",
      "قب ضہ",
      "مي ں",
      "کینی ڈی",
      "ایجن سی",
      "ٹین کس",
      "فیئر فیکس",
      "ہسپان وی",
      "بخ ش",
      "خف یہ",
      "دکان یں",
      "افت تاح",
      "تلو ار",
      "ذخی رہ",
      "شاع ری",
      "غال باً",
      "قبر ستان",
      "مقی م",
      "مملک ت",
      "ڈپار ٹمنٹ",
      "ڈوپ ونٹ",
      "ریاس تی",
      "شیکس پیئر",
      "مونیو منٹ",
      "یادگاری ں",
      "3 4",
      "3 6",
      "3 ھ",
      "4 0",
      "4 6",
      "4 7",
      "4 9",
      "5 1ء",
      "6 8",
      "7 5",
      "a r",
      "c om",
      "e s",
      "i on",
      "n d",
      "o l",
      "s h",
      "v e",
      "° س",
      "° ف",
      "آ ج",
      "آ ں",
      "آ یا",
      "آ بی",
      "آ گیا",
      "آ ئے",
      "آ خری",
      "ا ك",
      "ا ٹل",
      "ا عداد",
      "ب ح",
      "ب چ",
      "ب اس",
      "ب لا",
      "ب طور",
      "ب لین",
      "ب اسی",
      "ب جائے",
      "ب حر",
      "ت ن",
      "ت نا",
      "ج ڑ",
      "ج لا",
      "ج من",
      "ج مع",
      "ج غر",
      "ح م",
      "ح ان",
      "ح قی",
      "ح لق",
      "خ بر",
      "خ ون",
      "د ت",
      "د ع",
      "د ام",
      "د ادی",
      "ذ ائ",
      "ر ر",
      "ر پور",
      "ز ز",
      "ز می",
      "ز ائ",
      "س ف",
      "ش پ",
      "ش ات",
      "ش تر",
      "ش کل",
      "ش ہی",
      "ص ل",
      "ص ار",
      "ص لہ",
      "ع ط",
      "ع ات",
      "ف ص",
      "ف ظ",
      "ف ال",
      "ف اس",
      "ف سا",
      "ف ول",
      "ف اق",
      "ق در",
      "ق ون",
      "ك ن",
      "ك ئے",
      "ك اری",
      "ل سل",
      "ل کھی",
      "ل اتا",
      "م ے",
      "م لی",
      "م مت",
      "م در",
      "م ون",
      "م دین",
      "م ونٹ",
      "م بنی",
      "ن ئے",
      "ن واز",
      "و ڈ",
      "و زیر",
      "و ڈور",
      "ي ہ",
      "ي ۃ",
      "ٹ ائیڈ",
      "پ سی",
      "پ چھ",
      "پ الی",
      "پ لان",
      "چ ن",
      "چ ے",
      "چ ند",
      "ڈ ا",
      "ڈ ے",
      "ڈ اون",
      "ڑ ے",
      "گ نے",
      "گ ئیں",
      "ہ وں",
      "ی ع",
      "ی ل",
      "ی ور",
      "ی وں",
      "می سا",
      "می جر",
      "ور انہ",
      "کی تھ",
      "کی شن",
      "ری س",
      "ری ف",
      "ری ں",
      "ان ڈ",
      "ان کہ",
      "ان قل",
      "ال ق",
      "ال اس",
      "اس ٹرز",
      "ای ت",
      "ای سا",
      "ای سٹ",
      "ای گزی",
      "لی ں",
      "کو چ",
      "کو لی",
      "ام داد",
      "ام تز",
      "وا حد",
      "وا پسی",
      "پر ائی",
      "پر ائم",
      "سی ع",
      "سی ل",
      "سی م",
      "سی نیٹ",
      "ات فاق",
      "دی و",
      "دی نی",
      "ٹی ج",
      "ٹی کسی",
      "ڈی م",
      "ٹر ن",
      "لا ک",
      "لا طی",
      "بی ر",
      "بی و",
      "بی ٹی",
      "بی سن",
      "بی رونی",
      "بی شتر",
      "رو ل",
      "رو م",
      "رو ن",
      "دو ن",
      "دو ی",
      "من ز",
      "من اس",
      "من اف",
      "من درجہ",
      "جی وگر",
      "با قی",
      "تا ج",
      "بر اڈ",
      "بر آں",
      "قی ان",
      "ئی ن",
      "ول ک",
      "مر چ",
      "فر انسی",
      "بھی ڑ",
      "گر م",
      "گر انٹ",
      "ون س",
      "ون ٹی",
      "اف ک",
      "سر خ",
      "سر گرمیوں",
      "سر كاری",
      "لو تھر",
      "کھ لا",
      "کھ ول",
      "کھ انوں",
      "وال ہ",
      "جن گی",
      "رہ تے",
      "مح لوں",
      "مق بر",
      "مق صد",
      "مق رر",
      "تھی وڈور",
      "تر کی",
      "تر اجم",
      "مار کیٹ",
      "فی ض",
      "فی ڈرل",
      "وی ز",
      "وی ٹ",
      "سٹ س",
      "سٹ یاں",
      "18 ء",
      "18 46ء",
      "یو م",
      "امریکی وں",
      "کم ان",
      "کم شن",
      "عر صہ",
      "مس لسل",
      "واقع ہ",
      "تو سیع",
      "کار رو",
      "نم ائش",
      "او قیان",
      "تح فظ",
      "اسٹی ٹ",
      "دری ا",
      "کٹ و",
      "اند رونی",
      "فار سی",
      "چی ن",
      "میو زک",
      "اق دام",
      "جب کہ",
      "نو ان",
      "نو مبر",
      "حص ار",
      "حص وں",
      "رہائ ش",
      "پیش کش",
      "سل طان",
      "لف ظ",
      "الح سن",
      "14 ء",
      "سرو ے",
      "فو ج",
      "کھی لوں",
      "تص نی",
      "الم ؤ",
      "یونیور سٹیاں",
      "تنظ ی",
      "پور ا",
      "چو تھی",
      "چو دھ",
      "چو سٹس",
      "جر سی",
      "جر ائم",
      "بس یں",
      "انچ ہ",
      "حات م",
      "ٹیو ٹ",
      "اظ ت",
      "بلی ک",
      "رس می",
      "شہ اب",
      "كت ب",
      "خصوص یات",
      "لگ ے",
      "پڑ وس",
      "نمائن دگان",
      "حمل ہ",
      "ریستور انوں",
      "بو ط",
      "کمی ونٹی",
      "گڑ ھ",
      "ایم ٹریک",
      "ایو ان",
      "تہ ذی",
      "خط ے",
      "نف س",
      "196 1ء",
      "ملاز مین",
      "كر نے",
      "گار ڈن",
      "برطان وی",
      "حال ات",
      "حال یہ",
      "حال انکہ",
      "خلا صہ",
      "سک تا",
      "روح انی",
      "تحری ك",
      "انداز ے",
      "دست خط",
      "شخص یات",
      "شخص یت",
      "کین ال",
      "منصو بہ",
      "منصو بوں",
      "اخبار ات",
      "شماری اتی",
      "وسط ی",
      "180 0ء",
      "ضر ورت",
      "عص ر",
      "ابر ار",
      "ائیٹ ڈ",
      "معاہ دہ",
      "معاہ دے",
      "اوسط اً",
      "مطال عہ",
      "فوجی وں",
      "سام نے",
      "شر کت",
      "پھی لا",
      "ائسن س",
      "برس وں",
      "صنع تی",
      "ہف تہ",
      "نشان ات",
      "پروگرام وں",
      "at ion",
      "or g",
      "حا کم",
      "زم انہ",
      "گور نر",
      "یون ائیٹڈ",
      "برف انی",
      "انتظامی ہ",
      "تذکر ہ",
      "حف اظت",
      "علم ا",
      "ہتھی ار",
      "لاف ائیٹ",
      "افی ائی",
      "شیئر نگ",
      "ہارڈ کور",
      "باس کٹ",
      "جغر افیائی",
      "شہی د",
      "فسا دات",
      "فول گر",
      "ممت از",
      "ٹائیڈ ل",
      "میسا چوسٹس",
      "کیتھ ولک",
      "انقل اب",
      "امتز اج",
      "پرائی ویٹ",
      "پرائم ری",
      "مناف ع",
      "جیوگر افک",
      "فرانسی سی",
      "2 1",
      "2 2",
      "3 5",
      "3 7",
      "4 1ء",
      "5 00",
      "5 7ء",
      "5 60",
      "6 1",
      "8 0",
      "9 0",
      "9 2",
      "9 5",
      "W a",
      "a g",
      "a m",
      "a rabi",
      "e e",
      "f r",
      "i bn",
      "o f",
      "t o",
      "t on",
      "u r",
      "آ تی",
      "آ تش",
      "ا کی",
      "ا کر",
      "ا در",
      "ا وہ",
      "ا كہ",
      "ا طہ",
      "ا قوام",
      "ب ي",
      "ب رو",
      "ب ست",
      "ب جا",
      "ت ری",
      "ت بہ",
      "ت دری",
      "ت جر",
      "ت جدید",
      "ج مال",
      "ج اہ",
      "ج واب",
      "ج زیر",
      "ج حان",
      "ح ت",
      "ح ک",
      "ح لی",
      "ح كو",
      "ح دود",
      "ح والہ",
      "خ ز",
      "خ ل",
      "د کھ",
      "د روی",
      "ذ مہ",
      "ر گ",
      "ر وں",
      "ر وا",
      "ر ائے",
      "ر اہ",
      "ر از",
      "ر سالہ",
      "ر جحان",
      "ز ا",
      "ز ری",
      "ز بر",
      "ز مر",
      "ز ون",
      "ز برگ",
      "س اس",
      "س پر",
      "س ات",
      "س ہر",
      "س ائی",
      "س ون",
      "س خت",
      "س مندر",
      "س فید",
      "س ہول",
      "ش ان",
      "ش عر",
      "ش اہر",
      "ش دید",
      "ش اہی",
      "ص ر",
      "ص ان",
      "ص اب",
      "ص الح",
      "ص ورت",
      "ض م",
      "ط فی",
      "ظ م",
      "ع نوان",
      "ف رو",
      "ف خر",
      "ق ن",
      "ق ے",
      "ق ال",
      "ق یاد",
      "ق صہ",
      "ك ى",
      "ك ار",
      "ك ام",
      "ك لم",
      "ل ش",
      "ل ک",
      "ل نے",
      "ل سی",
      "م ؤ",
      "م شن",
      "م با",
      "م ئی",
      "م انی",
      "م کان",
      "م عر",
      "م اؤن",
      "م ہم",
      "م نین",
      "م اہر",
      "م جھ",
      "م فت",
      "م فید",
      "ن ؤ",
      "ن ور",
      "ن اف",
      "ن صاب",
      "و م",
      "و ک",
      "و ہیں",
      "و لا",
      "و کٹ",
      "و غی",
      "و زر",
      "ٹ وں",
      "ٹ ھی",
      "ٹ ائم",
      "پ کا",
      "پ ول",
      "پ ایا",
      "پ سند",
      "چ ہ",
      "چ کی",
      "چ سا",
      "چ ونکہ",
      "ڈ ان",
      "ڈ نس",
      "ڈ ولی",
      "ڑ ا",
      "ڑ ائی",
      "ک پ",
      "ک اس",
      "ک چی",
      "ک میو",
      "ک الم",
      "گ ت",
      "گ ال",
      "گ نا",
      "گ زر",
      "ھ ا",
      "ہ ائی",
      "ہ سٹری",
      "ہ زار",
      "ہ اٹ",
      "می ون",
      "می گزی",
      "ور و",
      "ور ٹی",
      "کی تھی",
      "کی مڈن",
      "ری ت",
      "ری ز",
      "ری شن",
      "ری گن",
      "ری ڈیو",
      "ان گ",
      "ان جی",
      "ان فر",
      "ان وار",
      "ان ٹک",
      "ان صاف",
      "ال ڈ",
      "ال گ",
      "ال عربی",
      "ال انوار",
      "ار د",
      "ار س",
      "ار ک",
      "ار کان",
      "ائ ج",
      "ائ ٹس",
      "ائ یاں",
      "یا ء",
      "اس اس",
      "کا ز",
      "کا فی",
      "ای ر",
      "ای سی",
      "ای جو",
      "ای تی",
      "ای شی",
      "لی می",
      "لی تے",
      "لی منٹ",
      "لی كن",
      "کو ی",
      "کو اڈ",
      "ام دادی",
      "وا ری",
      "شن وں",
      "پر انا",
      "پر تشدد",
      "سی کشن",
      "دی ر",
      "دی ک",
      "دی کھی",
      "کر و",
      "کر سٹ",
      "کر دار",
      "کر ایا",
      "نی ئر",
      "نی چے",
      "ایک س",
      "اب د",
      "اب ھی",
      "مت با",
      "جو ز",
      "جو ی",
      "جو ائنٹ",
      "جو نیئر",
      "ٹی نک",
      "تی وں",
      "ڈی مو",
      "ڈی ئن",
      "ٹر مپ",
      "لا ع",
      "لا ہور",
      "لا گت",
      "بی ٹھ",
      "بی ورو",
      "شہر ت",
      "ائی ول",
      "رو ک",
      "رو می",
      "رو انہ",
      "دو م",
      "با اثر",
      "با عث",
      "با وجود",
      "تا ً",
      "تا ویز",
      "مل ح",
      "کہ لاتا",
      "بر ج",
      "بر آمد",
      "سا حل",
      "قی د",
      "یہ ی",
      "در د",
      "در س",
      "پی پ",
      "پی ک",
      "پی نٹ",
      "20 8",
      "20 18ء",
      "مر طو",
      "مر تبہ",
      "فر انس",
      "گر ڈ",
      "گر دی",
      "ون ہ",
      "اف ظ",
      "سر کولی",
      "کھ ڑی",
      "کھ ولی",
      "کھ ڑے",
      "وال دہ",
      "وال دین",
      "زی ز",
      "جن س",
      "اہ دہ",
      "رہ نے",
      "عد ال",
      "مح اص",
      "مق د",
      "اپ ریل",
      "بہ ار",
      "بہ اؤ",
      "سب ب",
      "19 4",
      "تر میم",
      "مش ی",
      "مش ور",
      "مش اہدہ",
      "فی صلہ",
      "کن ارہ",
      "وی ت",
      "وی ل",
      "بل قان",
      "بل حاظ",
      "بل اسٹرز",
      "انی ن",
      "نیشنل ز",
      "کان ٹی",
      "سن بھ",
      "وری ڈا",
      "پو چھ",
      "آر می",
      "آر بور",
      "کل ب",
      "گی ر",
      "گی س",
      "حکومت ی",
      "پار ٹی",
      "پار لیمنٹ",
      "مع ت",
      "مع یار",
      "مع زز",
      "انہ ی",
      "تع لیمی",
      "میر ے",
      "میری ڈیئن",
      "سو س",
      "سو چ",
      "سو اروں",
      "سو سائ",
      "سال وں",
      "قو انین",
      "نام ہ",
      "نام علوم",
      "چھ ے",
      "چھ ٹا",
      "دار الحکومت",
      "سیا ں",
      "سیا ست",
      "لائن ز",
      "لائن وں",
      "از ت",
      "او پر",
      "او با",
      "او قات",
      "سم جھی",
      "صو فی",
      "جل ال",
      "جل سے",
      "مول وی",
      "اع توں",
      "اع ظم",
      "امی ن",
      "اند لسی",
      "تقری ب",
      "چی ری",
      "چی دہ",
      "رکھ تی",
      "رکھ تے",
      "چل اتا",
      "رین ٹ",
      "اح اطہ",
      "ہی ل",
      "دف ن",
      "گو شت",
      "اق سام",
      "سپ ل",
      "200 0ء",
      "200 1ء",
      "بین ک",
      "خد شات",
      "ہن د",
      "ڈھ اكہ",
      "سل س",
      "سل ام",
      "انت قال",
      "الح ق",
      "الح کم",
      "14 2",
      "14 3",
      "قر بت",
      "تعمیر اتی",
      "کیپٹل ز",
      "مص نوع",
      "مص طفی",
      "چو ک",
      "اش اعت",
      "اڈ وں",
      "خو ب",
      "وار ڈ",
      "ہندو ستان",
      "فن کار",
      "نین ٹل",
      "پید ل",
      "ترجم ے",
      "ترجم ان",
      "لگ ا",
      "لگ ایا",
      "پڑ ے",
      "ڈال ا",
      "ٹران سپ",
      "ریستور ان",
      "اون چی",
      "لکھ ا",
      "لکھ نؤ",
      "کمی شن",
      "کمی ٹی",
      "روز انہ",
      "اپنا یا",
      "197 3ء",
      "199 1ء",
      "کمپ لیکس",
      "تحقی قات",
      "12 9",
      "فل وریڈا",
      "افری قن",
      "تار کین",
      "خط ی",
      "ابتد ا",
      "الیگزینڈ ر",
      "حی در",
      "سفار تی",
      "شا عر",
      "ایڈ مز",
      "سک تی",
      "سک تے",
      "مض مون",
      "مض بوط",
      "مض امین",
      "کش ف",
      "ہار بر",
      "انداز ہ",
      "اج ازت",
      "مجمو عے",
      "نتی جہ",
      "ٹیکس وں",
      "on t",
      "اگ ست",
      "اگ لے",
      "حر ارت",
      "الع لوم",
      "منصو بے",
      "سڑ کوں",
      "فور ٹ",
      "مان اساس",
      "نز دیک",
      "چر چ",
      "ارت کاز",
      "گرد ش",
      "179 0ء",
      "ٹرین یں",
      "گیلری وں",
      "بغ داد",
      "دس تاویز",
      "ریو ائیول",
      "ابر اہم",
      "190 0ء",
      "181 5ء",
      "189 9ء",
      "متعلق ہ",
      "جائ داد",
      "طری قہ",
      "نق طہ",
      "نق صان",
      "نیوی ارک",
      "en t",
      "خوا تین",
      "ذہ بی",
      "مور من",
      "ہف تے",
      "کھیل تے",
      "er ia",
      "اگر چہ",
      "عل می",
      "مسی حی",
      "مظاہر وں",
      "چلا یا",
      "ارا دہ",
      "ارا کین",
      "اتح اد",
      "پیم انے",
      "پیم ائش",
      "ڈھانچ ے",
      "گھنٹ ہ",
      "گھنٹ ے",
      "اینڈریو ز",
      "فریڈرک زبرگ",
      "آدھ ا",
      "تس لیم",
      "تق سیم",
      "تفری ح",
      "مث ال",
      "گلی وں",
      "مید ان",
      "ریکار ڈز",
      "مندو ب",
      "باؤ ل",
      "198 0ء",
      "کنسر ٹ",
      "اونچ ائی",
      "گاڑی وں",
      "ing ton",
      "بغاو ت",
      "تبدی ل",
      "sh ington",
      "اٹل انٹک",
      "تن قید",
      "تنا ز",
      "خبر وں",
      "ذائ قہ",
      "صار فین",
      "عط یہ",
      "قدر تی",
      "مدر سے",
      "مدین ہ",
      "پچھ لے",
      "پالی سی",
      "چن انچہ",
      "یور پی",
      "ایگزی کٹو",
      "لاطی نی",
      "کمان ڈر",
      "کاررو ائیاں",
      "تصنی ف",
      "المؤ منین",
      "تنظی میں",
      "چودھ ویں",
      "تہذی ب",
      "Wa shington",
      "fr om",
      "اوہ ائیو",
      "تجر بہ",
      "جزیر ے",
      "حكو مت",
      "دروی ش",
      "رگ بی",
      "روا یات",
      "زبر دست",
      "سائی کل",
      "شان دار",
      "قیاد ت",
      "ماؤن ٹ",
      "ناف ذ",
      "وغی رہ",
      "وزر ڈز",
      "ٹائم ز",
      "چسا پیک",
      "میون سپل",
      "میگزی ن",
      "کیتھی ڈرل",
      "ایشی ائی",
      "کواڈ رینٹ",
      "متبا دل",
      "ڈیمو کری",
      "پینٹ ا",
      "مرطو ب",
      "فرانس س",
      "سرکولی ٹر",
      "پوچھ ا",
      "سوسائ ٹی",
      "مصنوع ات",
      "دستاویز ات",
      "1 ھ",
      "1 16",
      "2 3",
      "2 5",
      "3 1",
      "4 5",
      "4 4ء",
      "5 5",
      "5 ھ",
      "6 6",
      "6 7",
      "6 00",
      "7 9",
      "7 ھ",
      "8 5",
      "9 8",
      "A rabi",
      "B Y",
      "C C",
      "C r",
      "C ol",
      "D L",
      "D i",
      "F us",
      "F DL",
      "G e",
      "G FDL",
      "H ik",
      "I n",
      "I bn",
      "R e",
      "S A",
      "S ee",
      "U r",
      "a nd",
      "b ia",
      "c i",
      "c ont",
      "d u",
      "e p",
      "e t",
      "h e",
      "h t",
      "i g",
      "l s",
      "m at",
      "m bia",
      "n g",
      "o g",
      "p s",
      "r ic",
      "t e",
      "t he",
      "t ps",
      "u d",
      "u l",
      "u nd",
      "u mbia",
      "v i",
      "w iki",
      "w ikipedia",
      "° C",
      "° F",
      "ء ال",
      "آ ئ",
      "آ ل",
      "آ ڈی",
      "آ تے",
      "آ بائی",
      "ئ لے",
      "ا ء",
      "ا ذ",
      "ا ض",
      "ا ُ",
      "ا ہیں",
      "ا کن",
      "ب ط",
      "ب ائ",
      "ب نے",
      "ب کر",
      "ب تا",
      "ب قی",
      "ب لو",
      "ب غیر",
      "ب جانا",
      "ب ائسن",
      "ب ونہ",
      "ت ج",
      "ت غ",
      "ت ك",
      "ت ي",
      "ت لا",
      "ت ہو",
      "ت قی",
      "ت ئی",
      "ت جز",
      "ت روی",
      "ت فص",
      "ت ونس",
      "ت ائج",
      "ت جوی",
      "ث ان",
      "ث مر",
      "ث ریت",
      "ج ال",
      "ج اب",
      "ج بل",
      "ج ھر",
      "ج مد",
      "ح فی",
      "ح امی",
      "ح والے",
      "ح یات",
      "ح روف",
      "ح بت",
      "ح كم",
      "ح دون",
      "ح افظ",
      "خ س",
      "خ ور",
      "خ ام",
      "خ تی",
      "خ مار",
      "خ انے",
      "خ انوں",
      "خ ائر",
      "د یں",
      "د نی",
      "د عو",
      "ذ ا",
      "ذ اتی",
      "ذ خائر",
      "ر خ",
      "ر ك",
      "ر ار",
      "ر اس",
      "ر ہو",
      "ر جم",
      "ر مض",
      "ر چر",
      "ر بط",
      "ز ام",
      "ز ئی",
      "ز اروں",
      "ز ند",
      "س ئ",
      "س ع",
      "س می",
      "س کے",
      "س کی",
      "س ان",
      "س لی",
      "س من",
      "س وال",
      "س لیم",
      "س کور",
      "س کوئی",
      "س واری",
      "ش ل",
      "ش و",
      "ش ے",
      "ش ری",
      "ش ار",
      "ش کا",
      "ش ای",
      "ش مس",
      "ش رف",
      "ش کری",
      "ش وق",
      "ش دت",
      "ص ب",
      "ص ے",
      "ص لا",
      "ص اد",
      "ص دور",
      "ص حبت",
      "ض ح",
      "ض وں",
      "ض میر",
      "ط ے",
      "ط نی",
      "ط بی",
      "ط بل",
      "ط اری",
      "ط اقت",
      "ع ز",
      "ع ار",
      "ع قی",
      "ع مو",
      "ع بور",
      "ع ارف",
      "غ ز",
      "غ ور",
      "غ ام",
      "غ ول",
      "غ الب",
      "ف ح",
      "ف ۃ",
      "ف ائ",
      "ف نی",
      "ف ضل",
      "ف اص",
      "ف نس",
      "ف رین",
      "ف عال",
      "ف لیکس",
      "ق ي",
      "ق ار",
      "ق ائل",
      "ق اروں",
      "ق بول",
      "ك ڈان",
      "ل ت",
      "ل ور",
      "ل ٹی",
      "ل بن",
      "ل ابن",
      "ل ٹل",
      "ل انے",
      "ل ائسنس",
      "م م",
      "م وا",
      "م ہر",
      "م رو",
      "م اپ",
      "م جس",
      "م بل",
      "م واقع",
      "م اح",
      "م جب",
      "م ائل",
      "م کین",
      "م جوز",
      "م ذہبی",
      "ن ج",
      "ن ن",
      "ن ژ",
      "ن می",
      "ن ڈی",
      "ن مو",
      "ن ائب",
      "ن ثر",
      "ن تائج",
      "ه ية",
      "و ص",
      "و ض",
      "و ى",
      "و ِ",
      "و ٹ",
      "و اس",
      "و جی",
      "و با",
      "و تے",
      "و فی",
      "و منٹ",
      "ي ت",
      "ي د",
      "ي ں",
      "ٹ ڈ",
      "ٹ ور",
      "ٹ ائسن",
      "پ تا",
      "پ کار",
      "پ لوں",
      "پ زیر",
      "پ ایہ",
      "چ ا",
      "چ ک",
      "چ کے",
      "چ کا",
      "چ اہ",
      "چ اہی",
      "چ سپی",
      "ڈ و",
      "ڈ ون",
      "ڈ نڈ",
      "ڈ گل",
      "ڈ اگ",
      "ڑ ھ",
      "ڑ یاں",
      "ژ ری",
      "ک ٹر",
      "ک زی",
      "ک بھ",
      "ک لیہ",
      "گ نی",
      "گ ول",
      "گ لو",
      "گ اروں",
      "گ زار",
      "گ مری",
      "ہ ڈ",
      "ہ سٹ",
      "ہ دوی",
      "ہ اکی",
      "ہ ائٹس",
      "ہ زاروں",
      "ی ے",
      "ی ہیں",
      "ی حی",
      "می ہ",
      "می کے",
      "می كڈان",
      "ور ل",
      "ور ٹ",
      "ور مونٹ",
      "ور نن",
      "کی و",
      "کی ک",
      "کی رو",
      "کی بل",
      "کی ورٹی",
      "ری ہ",
      "ری زی",
      "ری ٹیج",
      "ان ع",
      "ان ٹو",
      "ان شور",
      "ان جمن",
      "ان حصار",
      "ان شل",
      "ال ك",
      "ال ن",
      "ال ال",
      "ال وی",
      "ال مد",
      "ال قری",
      "ال اخ",
      "ال اح",
      "ال بان",
      "ال رح",
      "ال شیخ",
      "ال تد",
      "ال اش",
      "ال اول",
      "ال اکبر",
      "ال طائی",
      "ال امر",
      "ال حصار",
      "ال نفس",
      "ال ابد",
      "ال جلال",
      "ال اندلسی",
      "ال زام",
      "ار بن",
      "ائ د",
      "ائ ز",
      "ائ س",
      "یا ب",
      "یا ز",
      "اور ہ",
      "اور نج",
      "اس پ",
      "اس تا",
      "اس پی",
      "اس فار",
      "اس پور",
      "اس سٹن",
      "ای ش",
      "ای ان",
      "ای وی",
      "ای نا",
      "ای لنگٹن",
      "ای گل",
      "لی ف",
      "لی کا",
      "لی ڈر",
      "لی ٹک",
      "لی سس",
      "کو میو",
      "ام ور",
      "ام ام",
      "ام کس",
      "ام لات",
      "ام لاک",
      "تھ ک",
      "تھ لی",
      "تھ وڈ",
      "وا ق",
      "وا ک",
      "وا ڈور",
      "وا ضح",
      "شن ز",
      "پر ت",
      "پر انے",
      "پر کش",
      "پر واز",
      "سی نی",
      "سی کھ",
      "سی نٹی",
      "سی نٹ",
      "سی کیورٹی",
      "ات می",
      "دی تی",
      "دی تے",
      "کر ہ",
      "کر کے",
      "کر اس",
      "کر انے",
      "کر مانی",
      "نی ٰ",
      "نی بر",
      "نی گی",
      "نی کیشن",
      "ٹن ا",
      "ٹن ٹ",
      "ہر جی",
      "دہ لی",
      "اب واب",
      "مت حد",
      "مت صل",
      "مت رجم",
      "جو ش",
      "ٹی میں",
      "ٹی کو",
      "ٹی کل",
      "ٹی نس",
      "تی ل",
      "تی م",
      "ڈی وں",
      "ڈی فنس",
      "ڈی ڑھ",
      "ٹر ا",
      "لا ك",
      "لا زمی",
      "بی ت",
      "بی ری",
      "بی وں",
      "بی سی",
      "بی انی",
      "بی داری",
      "بی ریں",
      "ہو د",
      "ہو جاتا",
      "ہو ئیں",
      "ائی ر",
      "رو س",
      "رو ش",
      "رو ڈ",
      "رو من",
      "رو ایتی",
      "من د",
      "من ور",
      "من سو",
      "من اص",
      "من گھ",
      "من اتا",
      "من جمد",
      "من تھلی",
      "جی تی",
      "جی ائی",
      "جی تے",
      "جی ئے",
      "با غی",
      "با زار",
      "تا کہ",
      "مل ن",
      "مل ہ",
      "کہ نے",
      "بر سٹ",
      "بر دار",
      "بر اؤن",
      "بر طرف",
      "بر نز",
      "بر منگھ",
      "سا کر",
      "سا زی",
      "سا تھی",
      "سا حلی",
      "بن ک",
      "بن گ",
      "بن کی",
      "بن ام",
      "بن نے",
      "بن ائی",
      "بن دو",
      "بن ائے",
      "بن کوی",
      "ول نے",
      "ول سن",
      "در ہ",
      "در بار",
      "در جے",
      "پی نے",
      "پی پر",
      "پی رس",
      "پی زا",
      "پی غام",
      "پی ٹنٹ",
      "مر اح",
      "مر دوں",
      "مر عو",
      "مر تب",
      "فر ڈ",
      "آپ ریشن",
      "گر دوں",
      "نڈ ا",
      "نڈ ز",
      "نڈ ری",
      "نڈ ریا",
      "مال ا",
      "مال ی",
      "اف سر",
      "سر پر",
      "سر براہ",
      "لو ٹ",
      "لو ٹے",
      "کھ لی",
      "کھ انا",
      "کھ انسی",
      "ست اروں",
      "اد ت",
      "اد ل",
      "اد ائی",
      "اد ارہ",
      "عد م",
      "مح د",
      "مح ض",
      "مح مڈن",
      "مح روم",
      "مح سوس",
      "مح اورہ",
      "مق ال",
      "مق دس",
      "بہ ن",
      "بہ تر",
      "19 1",
      "19 2",
      "19 50ء",
      "19 14ء",
      "19 57ء",
      "تر قیا",
      "مش ق",
      "مش غول",
      "بڑ ھی",
      "فی ڈ",
      "فی لڈ",
      "کن ز",
      "وی و",
      "وی ٰ",
      "انی س",
      "انی ف",
      "انی سویں",
      "تک میل",
      "شی فرڈ",
      "سن گھ",
      "ضلع ی",
      "18 3",
      "18 50ء",
      "18 14ء",
      "مو لی",
      "مو قع",
      "مو صل",
      "یو لیسس",
      "وری ن",
      "پو ائنٹ",
      "آر ٹیکل",
      "لم بی",
      "لم با",
      "جہ توں",
      "کل ن",
      "کل ام",
      "کل چر",
      "نا خو",
      "نا کوچ",
      "گی نیٹ",
      "جان ز",
      "جان ور",
      "جان تے",
      "وہ ی",
      "وہ یل",
      "پار ٹن",
      "پہ لو",
      "مع اص",
      "مع اون",
      "مع لوم",
      "مع املات",
      "مع مولی",
      "تع ارف",
      "مس ٹر",
      "مس ابق",
      "مس ٹیکس",
      "مس ئلے",
      "گری ن",
      "قو ب",
      "نام ور",
      "نام وں",
      "چھ توں",
      "17 4",
      "اص ط",
      "اک ثریت",
      "ٹری ڈ",
      "ٹری نوں",
      "ٹری لز",
      "تو ثی",
      "بہت رین",
      "سٹی شنوں",
      "نس لی",
      "جار جیائی",
      "کار ڈ",
      "کار کن",
      "کار پوری",
      "کار نیگی",
      "آبا دیا",
      "لائن ا",
      "نم ون",
      "نم از",
      "عمار ات",
      "او ور",
      "او پن",
      "اخ رہ",
      "اخ را",
      "صو بوں",
      "ئر ز",
      "جل س",
      "جل دی",
      "اسٹی ج",
      "اسٹی ٹس",
      "کانگری شنل",
      "اع مال",
      "دری اؤں",
      "کٹ ورل",
      "اند رون",
      "چی مبر",
      "چی مپ",
      "کام وں",
      "ایا م",
      "ادی ث",
      "ادی وں",
      "چل ائی",
      "چل تا",
      "چل انے",
      "چل ڈر",
      "چل اتے",
      "رین ائسنس",
      "انا طو",
      "نیو ز",
      "اح ت",
      "اح سن",
      "اح ادیث",
      "ہی ریٹیج",
      "دف عہ",
      "دف تری",
      "آبادی وں",
      "بال آخر",
      "گو ئی",
      "گو تھک",
      "پولی ٹیکو",
      "نو آبادیا",
      "سپ اہی",
      "الی کٹورل",
      "یاد گاروں",
      "200 8",
      "200 5ء",
      "جم بو",
      "جم اعت",
      "بین ز",
      "بین نگ",
      "خد ائی",
      "غر ب",
      "غر بت",
      "ڈس کوری",
      "ڈس کارڈ",
      "سل ور",
      "سل ائس",
      "میک لین",
      "بھ ارت",
      "نٹ س",
      "الح اتمی",
      "ایس کلی",
      "دہائی وں",
      "14 0",
      "14 7",
      "14 46ء",
      "14 51ء",
      "14 44ء",
      "فو گا",
      "قر آن",
      "لق ب",
      "تص انیف",
      "الم کیہ",
      "الم ملك",
      "الم ہدوی",
      "کاؤنٹی وں",
      "لائبری رین",
      "آئی نہ",
      "بد ل",
      "بد ترین",
      "زبان وں",
      "مص ر",
      "مص حفی",
      "چو تھا",
      "چو ڑائی",
      "تد بیریں",
      "تش ریف",
      "مز ار",
      "مز اح",
      "مز اکر",
      "کاری ں",
      "اش رف",
      "اش اری",
      "اش اعتوں",
      "بس تیوں",
      "خو ش",
      "وو ڈ",
      "وو لی",
      "وار د",
      "منظ م",
      "لوگ ن",
      "فن ک",
      "فن انشل",
      "دوسر ا",
      "اظ ہار",
      "اضاف ے",
      "رس ائی",
      "شہ د",
      "مخت صر",
      "پید ائش",
      "موجو دگی",
      "خر چ",
      "دھ ار",
      "لگ اتا",
      "وائ زری",
      "پڑ ا",
      "پڑ ی",
      "پڑ ھا",
      "کری ں",
      "الف اظ",
      "الف توحات",
      "الف اخرہ",
      "بلڈنگ ز",
      "اثر ات",
      "ٹیم وں",
      "بو سٹن",
      "لکھ نے",
      "ابو جا",
      "روز گاری",
      "199 8ء",
      "پہنچ تے",
      "کتاب وں",
      "کتاب یں",
      "12 4",
      "12 5",
      "جام ع",
      "دنیا وی",
      "گا ڑیاں",
      "ایم ا",
      "ایم بیسی",
      "ایو بی",
      "افری قہ",
      "افری قا",
      "جھ لک",
      "خط اب",
      "عی ب",
      "عی ن",
      "انٹر ویو",
      "دیکھ نے",
      "202 3ء",
      "196 8ء",
      "196 4ء",
      "موسی قاروں",
      "178 1ء",
      "178 9ء",
      "178 4ء",
      "16 9",
      "راست ہ",
      "راست وں",
      "شا گرد",
      "كر تے",
      "ڈن ڈیوں",
      "ایڈ وائزری",
      "177 8ء",
      "177 6ء",
      "جگہ وں",
      "کش میر",
      "تحری کوں",
      "كتاب وں",
      "دست یاب",
      "دست بردار",
      "قان ونی",
      "مجمو عہ",
      "نش ست",
      "نش انہ",
      "ٹیکس یاں",
      "بڑھ ا",
      "بڑھ تے",
      "پوسٹ ل",
      "جد ا",
      "جز ائر",
      "ذی لی",
      "صف ائی",
      "طرز وں",
      "فنڈ ز",
      "پن جاب",
      "الع زیز",
      "الع ادل",
      "پرنس ٹن",
      "متع ارف",
      "ملکی ت",
      "شہری وں",
      "59 3ھ",
      "59 5ھ",
      "بج لی",
      "بج ایہ",
      "بھر ا",
      "سڑ ک",
      "فور س",
      "فور اً",
      "قا ضی",
      "مان یہ",
      "نر م",
      "نر می",
      "کوری ج",
      "اسٹ ور",
      "اسٹ ار",
      "اسٹ ڈیز",
      "ایل چی",
      "کوشش یں",
      "منگ لہ",
      "فرم وں",
      "180 1ء",
      "بلیو ز",
      "ملازمت وں",
      "پابندی وں",
      "دل چسپی",
      "پانچ واں",
      "ہسپ تال",
      "میڈی کل",
      "انڈی ن",
      "تیسر ے",
      "گرمی اں",
      "190 1ء",
      "190 7ء",
      "188 0ء",
      "188 8ء",
      "188 9ء",
      "189 5ء",
      "آرکائیو ز",
      "کلاسی کل",
      "تعلق ات",
      "چھو ڑ",
      "چھو ٹے",
      "چھو ٹا",
      "مطال بہ",
      "مطال بے",
      "خلی ج",
      "داخ ل",
      "صدار ت",
      "طری قے",
      "ولیم ز",
      "پھی لی",
      "کنی سہ",
      "ایتھ لیٹک",
      "پرفار م",
      "186 1ء",
      "186 8ء",
      "186 7ء",
      "187 0ء",
      "187 1ء",
      "سمجھ وتے",
      "فریڈر کس",
      "38 9",
      "اٹھ انا",
      "اٹھ اتے",
      "خری د",
      "خوا ہ",
      "ذہ انت",
      "سابق ہ",
      "صنع ت",
      "عم لی",
      "عم دہ",
      "عمل ے",
      "قب ائل",
      "مور گن",
      "مست ند",
      "کینی لور",
      "الأ سفار",
      "ایجن سیاں",
      "ڈیو ک",
      "دوست انہ",
      "عرب ي",
      "خیال ات",
      "39 5",
      "st ric",
      "us ing",
      "تز ئین",
      "حا ضر",
      "زم انے",
      "سائ ٹ",
      "مسی سپی",
      "مظاہر ہ",
      "الإ ل",
      "اسلامی ات",
      "کامیاب ی",
      "اتح ادیوں",
      "جوڑ تی",
      "رہنم ا",
      "رہنم اؤں",
      "ڈھانچ ہ",
      "آدھ ے",
      "اط ر",
      "تفری حی",
      "خات مہ",
      "رق م",
      "رق بہ",
      "كي ا",
      "پگ ڈنڈ",
      "پگ ڈنڈیوں",
      "پھ وٹ",
      "مید انوں",
      "ریکار ڈ",
      "اسم بلی",
      "لیبل ز",
      "مندو بین",
      "باؤ نڈری",
      "193 0ء",
      "193 8ء",
      "کنسر ٹس",
      "قوم وں",
      "اونچ ا",
      "بغاو توں",
      "تبدی لی",
      "ar t",
      "اك بر",
      "بح ث",
      "بح ریہ",
      "بچ پن",
      "باسی لیکا",
      "جڑ واں",
      "حم ایت",
      "حقی قی",
      "حقی قت",
      "حلق ے",
      "حلق وں",
      "دع ا",
      "دع ویٰ",
      "رپور ٹ",
      "زائ د",
      "زائ رین",
      "فص ول",
      "قون یا",
      "قون وی",
      "مونٹ گمری",
      "یع نی",
      "یع قوب",
      "الق اسم",
      "الاس رار",
      "سیل اب",
      "سیل واڈور",
      "دیو ان",
      "ٹرن ٹن",
      "بیو کس",
      "رون الڈ",
      "منز ل",
      "مناس ب",
      "کھول ے",
      "مقبر ہ",
      "مقبر ے",
      "کمشن روں",
      "نمائش وں",
      "نمائش یں",
      "اوقیان وسی",
      "اوقیان وس",
      "چین ل",
      "گارڈن ز",
      "بي رات",
      "برو صہ",
      "تدری س",
      "جاہ ت",
      "حک مت",
      "خز اں",
      "دکھ ایا",
      "راہ داری",
      "زمر ہ",
      "سون پا",
      "سہول ت",
      "شاہر اہیں",
      "لش بونہ",
      "مبا د",
      "معر فۃ",
      "مجھ ے",
      "ولا دت",
      "وکٹ ورین",
      "ڈولی س",
      "کاس ٹل",
      "کمیو نیکیشن",
      "گزر تا",
      "ریز رو",
      "انجی ن",
      "ایجو کیشن",
      "بیٹھ ے",
      "ملح قہ",
      "پیپ لز",
      "محاص رہ",
      "194 2ء",
      "مشور ہ",
      "ویت نام",
      "سنبھ الا",
      "آربور ٹیم",
      "صوفی وں",
      "ہیل تھ",
      "سلس لے",
      "142 1ء",
      "خوب صورت",
      "فنکار انہ",
      "ٹرانسپ ورٹ",
      "خطی ب",
      "مسیحی وں",
      "تناز عات",
      "کمانڈر ز",
      "ڈیموکری ٹک",
      "فرانسس کو",
      "116 5ء",
      "Col umbia",
      "Di stric",
      "Fus us",
      "Hik am",
      "Re using",
      "Ur du",
      "cont ent",
      "ht tps",
      "mat eria",
      "آئ زن",
      "اض لاع",
      "بائ بل",
      "بقی ہ",
      "تغ لق",
      "تي ونس",
      "تلا ش",
      "تہو اروں",
      "تئی سویں",
      "تجز یہ",
      "تروی ج",
      "تجوی ز",
      "ثمر ات",
      "دنی ائے",
      "دعو ت",
      "رہو یں",
      "رمض ان",
      "رچر ڈ",
      "سع ادت",
      "سمن دری",
      "سکوئی ر",
      "شار لٹ",
      "شکا گو",
      "شای د",
      "شکری ہ",
      "طبل ہ",
      "عقی دے",
      "فائ دہ",
      "فاص لے",
      "فرین کلن",
      "قار ئین",
      "لبن ان",
      "لابن گ",
      "موا د",
      "مرو جہ",
      "ماپ ا",
      "ماح ول",
      "مجب ور",
      "مجوز ہ",
      "نژ اد",
      "واس ا",
      "ٹائسن ز",
      "چاہ تے",
      "چاہی ے",
      "ڈگل س",
      "کزی نڈریا",
      "کبھ ار",
      "ہسٹ ورک",
      "یحی ی",
      "میكڈان لڈ",
      "کیرو لائنا",
      "ریزی ڈنس",
      "انٹو نی",
      "انشور نس",
      "انجمن یں",
      "المد ارس",
      "القری شی",
      "الاح مر",
      "الرح من",
      "التد بيرات",
      "الاش واق",
      "الابد ال",
      "اسپور ٹس",
      "ایوی نیو",
      "ایگل ز",
      "کومیو ٹر",
      "پرکش ش",
      "سیکھ ا",
      "ہرجی ت",
      "رومن سک",
      "مناص ح",
      "برسٹ و",
      "برنز وک",
      "برمنگھ م",
      "مراح ل",
      "مرعو ب",
      "ترقیا تی",
      "معاص رین",
      "مسابق تی",
      "توثی ق",
      "اخرا جات",
      "چیمپ ئن",
      "چلڈر نز",
      "اناطو لیہ",
      "فوگا زی",
      "المملك ة",
      "مزاکر ات",
      "جھلک تی",
      "کینیلور تھ",
      "پگڈنڈ یاں",
      "Distric t",
      "0 5",
      "0 6",
      "0 ھ",
      "1 20",
      "1 1ء",
      "1 ویں",
      "2 9",
      "2 30",
      "2 59",
      "2 27",
      "2 50",
      "2 97",
      "3 3",
      "4 1",
      "4 3",
      "4 8",
      "4 ھ",
      "4 8ء",
      "4 000",
      "4 10",
      "4 70",
      "4 39",
      "4 46",
      "5 2",
      "5 3",
      "5 4",
      "5 8ء",
      "5 80",
      "5 45",
      "5 1ویں",
      "6 2",
      "6 3",
      "6 4",
      "6 20",
      "6 18",
      "6 5ء",
      "6 12",
      "6 27",
      "6 38",
      "6 49",
      "6 35",
      "7 1",
      "7 4",
      "7 6",
      "7 7",
      "7 8",
      "7 بی",
      "7 00",
      "7 ویں",
      "7 34",
      "7 49",
      "8 1",
      "8 2",
      "8 4",
      "8 8",
      "8 ھ",
      "8 اے",
      "8 32",
      "8 46",
      "8 22",
      "9 1",
      "9 ھ",
      "9 00",
      "9 2ء",
      "A P",
      "B P",
      "B o",
      "C کانگریس",
      "C al",
      "C ont",
      "D ep",
      "E ng",
      "F al",
      "G u",
      "H m",
      "H ol",
      "I I",
      "J ag",
      "L a",
      "L ic",
      "L ag",
      "M i",
      "M u",
      "M ur",
      "N am",
      "N ig",
      "P r",
      "R and",
      "R ud",
      "S o",
      "S y",
      "S ur",
      "T ra",
      "W h",
      "a y",
      "a in",
      "a bi",
      "a ve",
      "b e",
      "b o",
      "b st",
      "c e",
      "c h",
      "c to",
      "d e",
      "d er",
      "d ay",
      "e m",
      "e y",
      "e ar",
      "f o",
      "f or",
      "g er",
      "h ic",
      "i m",
      "i s",
      "i v",
      "i es",
      "i sh",
      "i ve",
      "i de",
      "j abi",
      "k s",
      "l ed",
      "l es",
      "l ation",
      "l ey",
      "l ish",
      "m u",
      "m ation",
      "m ent",
      "n s",
      "n ī",
      "n et",
      "n jabi",
      "o s",
      "o ci",
      "o te",
      "o ks",
      "p u",
      "p or",
      "p hic",
      "r t",
      "s u",
      "s ā",
      "s ed",
      "s ep",
      "s oci",
      "t in",
      "t al",
      "u al",
      "u ag",
      "w ley",
      "y کہا",
      "y ear",
      "ā d",
      "ء ع",
      "ء کی",
      "ء 12",
      "آ ب",
      "آ ش",
      "آ م",
      "آ گ",
      "آ ور",
      "آ کی",
      "آ ری",
      "آ نی",
      "آ تا",
      "آ نا",
      "آ ئر",
      "آ کٹ",
      "آ ٹو",
      "آ سٹری",
      "آ ما",
      "آ لات",
      "أ ت",
      "أ حسن",
      "ؤ ل",
      "ؤ یت",
      "ؤ ڈون",
      "ئ س",
      "ئ ری",
      "ئ منگ",
      "ئ لز",
      "ئ لٹی",
      "ئ يں",
      "ا ه",
      "ا ڑ",
      "ا ۃ",
      "ا ہے",
      "ا پر",
      "ا علا",
      "ا شی",
      "ا ضل",
      "ا کان",
      "ا ڈر",
      "ا ضر",
      "ا ثی",
      "ا ضی",
      "ا چھے",
      "ا اینڈریوز",
      "ب ٹ",
      "ب ک",
      "ب گ",
      "ب ری",
      "ب اور",
      "ب بر",
      "ب ئی",
      "ب سر",
      "ب وی",
      "ب قری",
      "ب مع",
      "ب اند",
      "ب ائل",
      "ب خو",
      "ب وقت",
      "ب بلی",
      "ب جے",
      "ب قا",
      "ب جاتے",
      "ب مقابلہ",
      "ب مبا",
      "ب ریت",
      "ب وہی",
      "ب ؤل",
      "ت خ",
      "ت یں",
      "ت وا",
      "ت اب",
      "ت وی",
      "ت مد",
      "ت قر",
      "ت اروں",
      "ت قا",
      "ت نز",
      "ت میز",
      "ت خلیق",
      "ت لاف",
      "ت دوی",
      "ت خل",
      "ت واری",
      "ث ے",
      "ث ار",
      "ث اب",
      "ث نا",
      "ث بو",
      "ث افت",
      "ث نیٰ",
      "ج ذ",
      "ج ع",
      "ج ٹ",
      "ج ک",
      "ج می",
      "ج شن",
      "ج اپ",
      "ج او",
      "ج اع",
      "ج ڑی",
      "ج واز",
      "ج عل",
      "ج تنا",
      "ج يت",
      "ج ملہ",
      "ج نڈز",
      "ح ج",
      "ح س",
      "ح ي",
      "ح ہ",
      "ح ام",
      "ح مد",
      "ح کم",
      "ح انہ",
      "ح رف",
      "ح كی",
      "ح کام",
      "ح الی",
      "ح ائل",
      "ح دین",
      "ح لف",
      "ح دگی",
      "ح لوں",
      "ح ضر",
      "ح وم",
      "خ ن",
      "خ می",
      "خ ار",
      "خ وں",
      "خ ول",
      "خ اک",
      "خ تو",
      "خ بار",
      "خ امی",
      "خ الی",
      "خ شک",
      "خ زر",
      "خ روش",
      "خ اطر",
      "د ش",
      "د لی",
      "د وا",
      "د بی",
      "د کن",
      "د اؤ",
      "د نوں",
      "د انت",
      "د ائر",
      "د مہ",
      "د شاہ",
      "د كن",
      "د ایت",
      "د روس",
      "د مشق",
      "د خول",
      "ذ ر",
      "ذ ي",
      "ذ نی",
      "ذ ائی",
      "ذ رہ",
      "ذ کور",
      "ذ را",
      "ذ شتہ",
      "ر د",
      "ر ش",
      "ر م",
      "ر ن",
      "ر ُ",
      "ر ۂ",
      "ر ‎",
      "ر کے",
      "ر ال",
      "ر سے",
      "ر اب",
      "ر بی",
      "ر ست",
      "ر جس",
      "ر اں",
      "ر سن",
      "ر لینڈ",
      "ر سال",
      "ر جا",
      "ر واب",
      "ر ند",
      "ر خص",
      "ر اج",
      "ر طی",
      "ر ابر",
      "ر ابطہ",
      "ر پلی",
      "ر شپ",
      "ر الڈ",
      "ر ائج",
      "ر ؤیت",
      "ز پ",
      "ز ائے",
      "ز ول",
      "ز وال",
      "ز زی",
      "ز اد",
      "ز ملک",
      "ز از",
      "ز امی",
      "ز دگی",
      "ز دگان",
      "س ك",
      "س ور",
      "س نے",
      "س دہ",
      "س مت",
      "س تی",
      "س ول",
      "س بھی",
      "س نڈ",
      "س لو",
      "س عد",
      "س ائن",
      "س فی",
      "س وی",
      "س لم",
      "س کل",
      "س كے",
      "س اسی",
      "س فری",
      "س عی",
      "س ہل",
      "س گن",
      "س ہار",
      "س تھر",
      "س عو",
      "س برگ",
      "س پین",
      "س ائیڈ",
      "س ڈا",
      "س لاطی",
      "س انچہ",
      "س زا",
      "س ختی",
      "س يد",
      "س خن",
      "س زائے",
      "ش ق",
      "ش کر",
      "ش تی",
      "ش فی",
      "ش انی",
      "ش جر",
      "ش في",
      "ش ریف",
      "ش مشی",
      "ش ہود",
      "ش ملہ",
      "ش جاع",
      "ص ۃ",
      "ص ی",
      "ص ال",
      "ص لی",
      "ص وا",
      "ص بہ",
      "ص غیر",
      "ص را",
      "ص لاح",
      "ص حت",
      "ض و",
      "ض ے",
      "ض ائی",
      "ض اۃ",
      "ط ع",
      "ط ات",
      "ط اب",
      "ط یات",
      "ط الب",
      "ط ویل",
      "ط البان",
      "ظ فر",
      "ع ری",
      "ع وں",
      "ع تی",
      "ع کس",
      "ع فو",
      "ع اش",
      "ع یاں",
      "ع باسی",
      "ع ریف",
      "ع ابد",
      "ع زیز",
      "ع ائد",
      "ع ساکر",
      "ع بقری",
      "ع شق",
      "غ م",
      "غ ہ",
      "غ ان",
      "غ وں",
      "غ لیہ",
      "غ فور",
      "غ اذ",
      "غ صے",
      "غ ذائی",
      "ف ش",
      "ف ف",
      "ف ك",
      "ف ہ",
      "ف یا",
      "ف وں",
      "ف کر",
      "ف ون",
      "ف اؤ",
      "ف قر",
      "ف قد",
      "ف اظ",
      "ف اون",
      "ف عی",
      "ف طری",
      "ف اتح",
      "ف ہوم",
      "ف ادر",
      "ف اضل",
      "ف ضائی",
      "ف عتی",
      "ق ق",
      "ق سی",
      "ق اب",
      "ق دو",
      "ق اد",
      "ق بل",
      "ق لم",
      "ق انہ",
      "ق اری",
      "ق اع",
      "ق بال",
      "ق سط",
      "ق اسی",
      "ق اہر",
      "ق ند",
      "ق تاً",
      "ق طاری",
      "ق صبہ",
      "ق طع",
      "ك ری",
      "ك ان",
      "ك ال",
      "ك ات",
      "ك مل",
      "ك ئی",
      "ك بھی",
      "ك سر",
      "ك زی",
      "ك چھ",
      "ك لام",
      "ك ڑی",
      "ك نار",
      "ك انگری",
      "ك انفر",
      "ل ب",
      "ل ة",
      "ل ث",
      "ل ي",
      "ل ڑ",
      "ل اس",
      "ل ہر",
      "ل ائے",
      "ل نڈ",
      "ل تے",
      "ل مح",
      "ل واقع",
      "ل نگ",
      "ل اتی",
      "ل ڑی",
      "ل آخر",
      "ل طی",
      "ل اتے",
      "ل يہ",
      "ل ٹرن",
      "ل ڑائی",
      "ل ائٹس",
      "ل حہ",
      "م ب",
      "م ة",
      "م ُ",
      "م کی",
      "م اس",
      "م نی",
      "م من",
      "م مل",
      "م بہ",
      "م کس",
      "م چھ",
      "م بار",
      "م اخ",
      "م كی",
      "م ہی",
      "م کت",
      "م جر",
      "م خصوص",
      "م خط",
      "م کتب",
      "م مان",
      "م اہی",
      "م رینا",
      "م كي",
      "م سند",
      "م اسٹرز",
      "م فرو",
      "م جلس",
      "م ذکور",
      "م غلیہ",
      "م فہوم",
      "م كمل",
      "ن ى",
      "ن ری",
      "ن ان",
      "ن گٹن",
      "ن ول",
      "ن فر",
      "ن ون",
      "ن سب",
      "ن جار",
      "ن چی",
      "ن انا",
      "ن كت",
      "ن بات",
      "ن رز",
      "ن شا",
      "ن فین",
      "ن طنی",
      "ن بیوں",
      "ن بوی",
      "ن ثار",
      "ه يۃ",
      "و ذ",
      "و ظ",
      "و ع",
      "و گ",
      "و تھ",
      "و فر",
      "و سٹ",
      "و کس",
      "و مس",
      "و بار",
      "و دری",
      "و مط",
      "و دے",
      "و حد",
      "و زٹ",
      "و انس",
      "و ڈن",
      "و زن",
      "و کال",
      "و ائیو",
      "و پولیس",
      "و ئیں",
      "و شمس",
      "و طنی",
      "و جاہت",
      "و طات",
      "ي ر",
      "ي م",
      "ي ور",
      "ي ار",
      "ي شن",
      "ي قی",
      "ي ون",
      "ي اء",
      "ّ و",
      "ّ اضی",
      "ٰ ہ",
      "ٰ ۃ",
      "ٰ ذا",
      "ٹ م",
      "ٹ ائ",
      "ٹ اور",
      "ٹ نی",
      "ٹ ہر",
      "ٹ اف",
      "ٹ وی",
      "ٹ وری",
      "ٹ اؤ",
      "ٹ ائر",
      "ٹ کرانے",
      "پ چ",
      "پ ری",
      "پ ال",
      "پ اور",
      "پ نی",
      "پ ٹی",
      "پ ٹر",
      "پ سن",
      "پ ٹری",
      "پ خت",
      "پ انے",
      "پ ٹس",
      "پ منٹ",
      "پ تہ",
      "پ توں",
      "پ چر",
      "پ امر",
      "پ ریس",
      "پ یاز",
      "چ ور",
      "چ ان",
      "چ لی",
      "چ ون",
      "چ وری",
      "چ نا",
      "چ اند",
      "چ مک",
      "چ شتی",
      "چ ٹنی",
      "ڈ ٹ",
      "ڈ ڈ",
      "ڈ کی",
      "ڈ اور",
      "ڈ ائن",
      "ڈ بل",
      "ڈ گری",
      "ڈ اؤن",
      "ڈ کٹ",
      "ڈ لن",
      "ڈ الی",
      "ڈ مبر",
      "ڈ انس",
      "ڈ لس",
      "ڈ ویژن",
      "ڈ ویل",
      "ڈ شری",
      "ڈ يشن",
      "ڑ وں",
      "ڑ بھ",
      "ک ائی",
      "ک بر",
      "ک سا",
      "ک فر",
      "ک مال",
      "ک تے",
      "ک انی",
      "ک سن",
      "ک لم",
      "ک چل",
      "ک ثر",
      "ک الی",
      "ک ٹیو",
      "ک ڑی",
      "ک ٹنگ",
      "ک چر",
      "ک اسٹ",
      "ک ثی",
      "ک فال",
      "ک بیر",
      "ک بریت",
      "ک ثافت",
      "ک ڑوں",
      "گ یں",
      "گ ہر",
      "گ ائے",
      "گ انے",
      "گ انا",
      "گ الف",
      "گ آرکائیو",
      "گ فت",
      "گ ائیڈ",
      "گ الا",
      "گ نڈا",
      "گ ذشتہ",
      "گ زامی",
      "ھ ي",
      "ھ نے",
      "ھ تی",
      "ھ تے",
      "ہ ٹ",
      "ہ اس",
      "ہ مر",
      "ہ اپ",
      "ہ اں",
      "ہ مد",
      "ہ مس",
      "ہ نگ",
      "ہ جر",
      "ہ ائر",
      "ہ ائیٹ",
      "ہ ضم",
      "ہ انگ",
      "ہ يں",
      "ہ دایت",
      "ی ر",
      "ی ن",
      "ی قی",
      "ی لو",
      "ی سو",
      "ی ئر",
      "ی لات",
      "ی ہود",
      "ی روش",
      "ی كسر",
      "ی کسا",
      "− 26",
      "− 15",
      "می پ",
      "می سن",
      "می نس",
      "می اتی",
      "می ٹھی",
      "می گال",
      "می تھوڈ",
      "می نٹس",
      "ور ش",
      "ور ڈ",
      "ور دی",
      "ور یہ",
      "ور زی",
      "ور کس",
      "ور نز",
      "ور فت",
      "ور لڈ",
      "ور مون",
      "ور ثے",
      "کی ری",
      "کی وں",
      "کی پر",
      "کی ات",
      "کی ٹی",
      "کی سا",
      "کی نڈ",
      "کی فی",
      "کی نیا",
      "کی کس",
      "کی دار",
      "کی کاؤ",
      "کی گن",
      "کی ڈاور",
      "کی ورنز",
      "ری کو",
      "ری وں",
      "ری ٹر",
      "ری فر",
      "ری سر",
      "ری جن",
      "ری فی",
      "ری اتی",
      "ری ڈس",
      "ری پبلک",
      "ری ڈنگ",
      "ری حات",
      "ری کری",
      "ری فل",
      "ری ڈن",
      "ری ٹنگ",
      "ری زور",
      "ری ئلٹی",
      "ری حانہ",
      "ان ح",
      "ان ٰ",
      "ان کو",
      "ان ام",
      "ان تھ",
      "ان وا",
      "ان دہ",
      "ان فار",
      "ان ٹس",
      "ان شا",
      "ان گل",
      "ان ية",
      "ان گلی",
      "ان كار",
      "ان وى",
      "ان وسٹ",
      "ال ي",
      "ال کا",
      "ال ام",
      "ال مت",
      "ال دو",
      "ال من",
      "ال تا",
      "ال مل",
      "ال در",
      "ال مر",
      "ال مال",
      "ال اف",
      "ال مح",
      "ال ائن",
      "ال کن",
      "ال وہ",
      "ال نظ",
      "ال اص",
      "ال از",
      "ال غی",
      "ال ثر",
      "ال قل",
      "ال اصل",
      "ال منظ",
      "ال ترجمہ",
      "ال ظاہر",
      "ال بج",
      "ال قا",
      "ال نع",
      "ال قسم",
      "ال صوف",
      "ال ولی",
      "ال بیان",
      "ال عرب",
      "ال رسائل",
      "ال فین",
      "ال معروف",
      "ال اعلیٰ",
      "ال وجود",
      "ال گون",
      "ال انسان",
      "ال خبر",
      "ال تراجم",
      "ال ابرار",
      "ال راز",
      "ال سہر",
      "ال شعر",
      "ال كلم",
      "ال مشاہدہ",
      "ال سلام",
      "ال جبل",
      "ال شمس",
      "ال صلا",
      "ال وص",
      "ال مقدس",
      "ال غرب",
      "ال قرآن",
      "ال تواری",
      "ال شہود",
      "ال غفور",
      "ال ّو",
      "ال ٰہ",
      "ال کبریت",
      "ار ڈ",
      "ار ات",
      "ار نی",
      "ار تد",
      "ار دن",
      "ار ٹمنٹ",
      "ائ خ",
      "ائ ط",
      "ائ یں",
      "ائ زی",
      "ائ شی",
      "ائ دین",
      "ائ ریز",
      "یا ط",
      "یا ری",
      "یا سین",
      "یا فعی",
      "اور آپ",
      "اور نگ",
      "اور لگ",
      "اور انگریزی",
      "اور تخل",
      "اور سائن",
      "اس ن",
      "اس ات",
      "اس ٹر",
      "اس لو",
      "اس عد",
      "اس مار",
      "اس کن",
      "اس ٹو",
      "اس کال",
      "اس پائی",
      "اس کاٹ",
      "اس الا",
      "اس لحہ",
      "اس کائی",
      "اس کینڈ",
      "کا ء",
      "کا ت",
      "کا پی",
      "کا ٹا",
      "کا ٹیج",
      "ای ے",
      "ای سے",
      "ای من",
      "ای مر",
      "ای گری",
      "ای لین",
      "ای پس",
      "ای میز",
      "ای کوی",
      "ای وارڈ",
      "ای مسٹر",
      "ای گزامی",
      "لی ت",
      "لی د",
      "لی ذ",
      "لی نے",
      "لی ڈی",
      "لی نگ",
      "لی فٹ",
      "لی جیئے",
      "لی جنڈز",
      "کو ام",
      "کو ست",
      "کو سو",
      "کو ئر",
      "کو لن",
      "کو نو",
      "کو پن",
      "کو ئن",
      "کو پل",
      "کو یت",
      "کو ئس",
      "کو اڈر",
      "کو لٹرن",
      "کو مب",
      "کو ٰۃ",
      "کو ڈڈ",
      "ام ت",
      "ام ک",
      "ام کان",
      "ام ارت",
      "ام يد",
      "ام ارات",
      "تھ سڈا",
      "تھ انوى",
      "وا و",
      "وا یا",
      "وا دی",
      "وا چی",
      "وا عظ",
      "وا ریں",
      "شن ی",
      "پر دہ",
      "پر انی",
      "پر امن",
      "پر وڈ",
      "پر وفی",
      "پر ائز",
      "پر جوش",
      "پر ورش",
      "سی ٹ",
      "سی ۃ",
      "سی ور",
      "سی کر",
      "سی ائے",
      "سی وری",
      "سی کل",
      "سی کور",
      "سی وارڈ",
      "سی شنز",
      "سی لوٹ",
      "سی کوئر",
      "ات ار",
      "ات نی",
      "ات نا",
      "ات مان",
      "ات صال",
      "دی س",
      "دی ش",
      "دی ق",
      "دی دہ",
      "دی وال",
      "دی نا",
      "دی رین",
      "دی جیئے",
      "دی واریں",
      "کر ا",
      "کر ز",
      "کر م",
      "کر ائے",
      "کر گھر",
      "کر گئے",
      "کر نٹ",
      "کر دگی",
      "کر ایہ",
      "کر دیتے",
      "کر ایے",
      "کر لینے",
      "نی ت",
      "نی س",
      "نی م",
      "نی کر",
      "نی ائی",
      "نی ول",
      "نی نٹ",
      "نی كا",
      "نی چر",
      "ٹن گٹن",
      "ٹن سٹ",
      "ہر ش",
      "ہر ن",
      "ہر ایا",
      "ہر شور",
      "ہر ٹنسٹ",
      "دہ لو",
      "دہ ند",
      "ایک لو",
      "اب دی",
      "اب ھر",
      "اب رین",
      "مت لا",
      "مت ون",
      "مت کل",
      "مت اخ",
      "مت مول",
      "مت وجہ",
      "مت حر",
      "مت صوف",
      "مت صاد",
      "مت قاضی",
      "مت منی",
      "جو س",
      "جو م",
      "جو ان",
      "جو ہر",
      "جو انی",
      "جو ؤں",
      "جو ڈشری",
      "ٹی فل",
      "ٹی وولی",
      "ٹی فك",
      "تی رہ",
      "تی لے",
      "تی نوں",
      "تی سری",
      "تی مور",
      "تی میہ",
      "تی رہویں",
      "ڈی ش",
      "ڈی ل",
      "ڈی ٹ",
      "ڈی لی",
      "ڈی لا",
      "ڈی نا",
      "ڈی نس",
      "ڈی لٹ",
      "ڈی وائٹ",
      "ڈی لان",
      "ڈی فنڈ",
      "ڈی واز",
      "ڈی وس",
      "ڈی مینٹس",
      "ٹر ل",
      "ٹر ڈ",
      "ٹر لی",
      "ٹر سٹ",
      "ٹر سن",
      "ٹر الی",
      "ٹر نٹی",
      "ٹر نز",
      "ٹر کوں",
      "ٹر ٹین",
      "ٹر مینس",
      "لا ق",
      "لا ری",
      "لا یا",
      "لا وا",
      "لا حات",
      "لا ؤڈون",
      "لا وڈن",
      "بی تی",
      "بی سا",
      "بی مار",
      "بی وی",
      "بی لے",
      "بی ماری",
      "بی ٹا",
      "بی رات",
      "بی ڑے",
      "بی لنے",
      "بی ڑا",
      "بی كنار",
      "بی تھسڈا",
      "بی نیکر",
      "ہو نی",
      "ہو لو",
      "ہو نیا",
      "ہو گی",
      "ہو ٹل",
      "ہو مز",
      "ہو جانے",
      "ہو گن",
      "ہو جائیں",
      "ہو یے",
      "ہو یاز",
      "ہو ئيں",
      "رو ج",
      "رو ي",
      "رو پ",
      "رو ے",
      "رو بی",
      "رو نم",
      "رو بات",
      "رو سہ",
      "رو شنی",
      "دو ار",
      "دو ایر",
      "دو لت",
      "دو ہرایا",
      "من س",
      "من ڈی",
      "من شی",
      "من ایا",
      "من اق",
      "من سٹری",
      "من صف",
      "من شور",
      "من صب",
      "من فعتی",
      "جی د",
      "جی سی",
      "جی تا",
      "جی رالڈ",
      "جی کسن",
      "با ء",
      "با ہ",
      "با ری",
      "با زی",
      "با قیا",
      "با ڑی",
      "با قا",
      "با دشاہ",
      "با قاع",
      "تا خی",
      "تا جر",
      "تا كہ",
      "مل نے",
      "مل ٹن",
      "مل تا",
      "مل کہ",
      "مل ٹری",
      "مل فوظ",
      "مل توی",
      "کہ ہ",
      "کہ نا",
      "کہ لاتی",
      "بر انچ",
      "بر اہی",
      "بر داری",
      "بر اجم",
      "بر انڈ",
      "بر يت",
      "بر صغیر",
      "بر طاب",
      "بر عکس",
      "سا ز",
      "سا ری",
      "سا زیا",
      "سا خت",
      "سا ختی",
      "سا حلوں",
      "سا وتھ",
      "قی ر",
      "قی مت",
      "است ثنا",
      "است قبال",
      "بن ت",
      "بن تی",
      "بن تا",
      "بن دوں",
      "بن اتے",
      "بن جمن",
      "بن گال",
      "بن ارس",
      "بن وایا",
      "ول ز",
      "ول س",
      "ول ے",
      "ول ارڈ",
      "ول ولے",
      "در ى",
      "در جن",
      "در ست",
      "در از",
      "در خت",
      "در بان",
      "در خو",
      "در آمد",
      "در آباد",
      "در واز",
      "در حقیقت",
      "پی ر",
      "پی ری",
      "پی سے",
      "پی نڈ",
      "پی کل",
      "پی نتی",
      "پی را",
      "پی سہ",
      "پی روی",
      "پی ٹرن",
      "پی چھے",
      "پی چیدہ",
      "پی ڈیمینٹس",
      "پی ٹرسن",
      "مر ہ",
      "مر مت",
      "مر انی",
      "مر اك",
      "مر بوط",
      "مر اثی",
      "مر جع",
      "مر حوم",
      "مر ذنی",
      "مر كزی",
      "فر ق",
      "فر ار",
      "فر نس",
      "فر نچ",
      "فر زند",
      "فر ائز",
      "بھی جی",
      "بھی دریائے",
      "بھی جا",
      "آپ کو",
      "آپ ریٹنگ",
      "گر ج",
      "گر ل",
      "گر اؤ",
      "گر جا",
      "گر ڈز",
      "گر ما",
      "گر فت",
      "گر ہوں",
      "گر انٹس",
      "ون شن",
      "ون خوا",
      "نڈ م",
      "نڈ نگ",
      "نڈ شپ",
      "مال یات",
      "اف ل",
      "اف ادی",
      "اف شا",
      "اف عت",
      "اف سوس",
      "اف طاری",
      "اف غان",
      "سر د",
      "سر ے",
      "سر فی",
      "سر دیا",
      "سر خی",
      "سر بیا",
      "سر فہرست",
      "سر ما",
      "سر عت",
      "سر براہی",
      "لو پ",
      "لو بہ",
      "لو گو",
      "لو ٹا",
      "لو ڈیٹ",
      "لو ولز",
      "کھ و",
      "کھ لے",
      "کھ ولا",
      "کھ لتے",
      "وال ٹر",
      "وال سر",
      "وال جمال",
      "وال ٹڈ",
      "وال مربوط",
      "زی ور",
      "زی نٹ",
      "زی ارت",
      "جن سی",
      "جن ہیں",
      "ریاست یں",
      "ست ر",
      "ست ہ",
      "ست رہ",
      "ست رہویں",
      "اہ ل",
      "اہ یم",
      "اد ب",
      "اد اس",
      "اد بی",
      "اد با",
      "اد فی",
      "اد اک",
      "اد ریس",
      "رہ تی",
      "رہ نا",
      "عد گی",
      "مح ل",
      "مح ور",
      "مح مو",
      "مح لہ",
      "مح بو",
      "مح افظ",
      "مح اضر",
      "مح راب",
      "مح قق",
      "مح اسن",
      "مح روسہ",
      "مح افل",
      "مق دار",
      "مق ابل",
      "اپ نى",
      "اپ ارٹمنٹ",
      "اپ ولس",
      "بہ بو",
      "جس م",
      "جس ٹ",
      "سب کی",
      "سب قت",
      "سب حان",
      "19 19",
      "19 38",
      "19 20ء",
      "19 18ء",
      "19 58ء",
      "تر ک",
      "تر اق",
      "تر ہوتی",
      "تر چھے",
      "تر بیت",
      "تر بیتی",
      "مش کل",
      "مش عر",
      "مش كا",
      "مش یل",
      "مش اه",
      "مش ائخ",
      "مش کوٰۃ",
      "مش روبات",
      "ائن ٹس",
      "مار س",
      "مار نگٹن",
      "مار کوئس",
      "فی ری",
      "فی نی",
      "فی سٹی",
      "فی سل",
      "فی نٹی",
      "فی رس",
      "فی رسن",
      "فی ّاضی",
      "کن سن",
      "کن سل",
      "کن دھ",
      "کن ونشن",
      "وی ب",
      "وی د",
      "وی ک",
      "وی ی",
      "وی ٹن",
      "وی من",
      "وی نس",
      "وی ئر",
      "وی ڈیو",
      "وی کلی",
      "وی منز",
      "وی ٹرنز",
      "بل وا",
      "بل ٹس",
      "بل اسم",
      "بل غم",
      "گیا ں",
      "سٹ ى",
      "سٹ ائل",
      "تک لیف",
      "شی د",
      "شی ر",
      "شی ٹ",
      "شی وی",
      "شی عہ",
      "شی شہ",
      "شی ریں",
      "شی شے",
      "شی ڈو",
      "شی فوں",
      "شی ریڈن",
      "کان گ",
      "کان ے",
      "کان فرنس",
      "میٹر 2",
      "سن گ",
      "سن گی",
      "سن گل",
      "سن ٹرل",
      "18 17ء",
      "18 51ء",
      "18 41ء",
      "18 57ء",
      "18 48ء",
      "مو ت",
      "مو ڑ",
      "مو ٹر",
      "مو ٹا",
      "مو حدون",
      "مو سمی",
      "مو ومنٹ",
      "مو بائل",
      "مو حدین",
      "مو ضو",
      "یو تا",
      "یو پی",
      "یو ٹیو",
      "یو ٹیلی",
      "یو سف",
      "پو لینڈ",
      "پو دوں",
      "پو زر",
      "پو ائنٹس",
      "آر ا",
      "آر چ",
      "آر گی",
      "آر کس",
      "آر ڈر",
      "آر مز",
      "آر گن",
      "آر تھر",
      "آر ایش",
      "آر تھوڈ",
      "آر کیٹی",
      "آر ائشی",
      "لم بائی",
      "لم اء",
      "جہ از",
      "کل کتے",
      "مد نی",
      "مد اخ",
      "مد نظر",
      "مد فون",
      "مد افعت",
      "مد مقابل",
      "نا ء",
      "نا ز",
      "نا ٹ",
      "نا کام",
      "نا غہ",
      "نا میاتی",
      "کم انے",
      "کم ایا",
      "کم زور",
      "کم پوزر",
      "گی م",
      "گی ٹ",
      "گی ری",
      "گی زی",
      "گی سٹ",
      "گی نٹ",
      "گی ارہ",
      "گی لوڈیٹ",
      "عر ض",
      "عر اق",
      "عر صے",
      "جان سن",
      "پار ے",
      "پہ اڑ",
      "پہ نچی",
      "پہ چان",
      "مع نے",
      "مع نی",
      "مع اف",
      "مع انی",
      "مع او",
      "مع تد",
      "مع طل",
      "مع جون",
      "مع دوم",
      "مع اشی",
      "مع ززی",
      "مع طیات",
      "مع یاری",
      "کس ان",
      "تع الی",
      "تع اون",
      "تع طی",
      "تع بیر",
      "تع صب",
      "تع لي",
      "تع ریفی",
      "تع بیرات",
      "مس ودے",
      "رف ت",
      "نظ م",
      "نظ ارے",
      "نظ یر",
      "نظ ریاتی",
      "گری شن"
    ]
  }
}